{
    "param_encodings": {
        "conv1.weight": [
            {
                "bitwidth": 3,
                "dtype": "int",
                "is_symmetric": "True",
                "max": 0.1537875235080719,
                "min": -0.2050500363111496,
                "offset": -4,
                "scale": 0.0512625090777874
            },
            {
                "bitwidth": 3,
                "dtype": "int",
                "is_symmetric": "True",
                "max": 0.03204033523797989,
                "min": -0.04272044822573662,
                "offset": -4,
                "scale": 0.010680112056434155
            },
            {
                "bitwidth": 3,
                "dtype": "int",
                "is_symmetric": "True",
                "max": 3.5762786865234375e-07,
                "min": -4.76837158203125e-07,
                "offset": -4,
                "scale": 1.1920928955078125e-07
            },
            {
                "bitwidth": 3,
                "dtype": "int",
                "is_symmetric": "True",
                "max": 0.029549933969974518,
                "min": -0.03939991071820259,
                "offset": -4,
                "scale": 0.009849977679550648
            },
            {
                "bitwidth": 3,
                "dtype": "int",
                "is_symmetric": "True",
                "max": 3.5762786865234375e-07,
                "min": -4.76837158203125e-07,
                "offset": -4,
                "scale": 1.1920928955078125e-07
            },
            {
                "bitwidth": 3,
                "dtype": "int",
                "is_symmetric": "True",
                "max": 0.08476914465427399,
                "min": -0.11302553117275238,
                "offset": -4,
                "scale": 0.028256382793188095
            },
            {
                "bitwidth": 3,
                "dtype": "int",
                "is_symmetric": "True",
                "max": 0.07194875925779343,
                "min": -0.09593167901039124,
                "offset": -4,
                "scale": 0.02398291975259781
            },
            {
                "bitwidth": 3,
                "dtype": "int",
                "is_symmetric": "True",
                "max": 3.5762786865234375e-07,
                "min": -4.76837158203125e-07,
                "offset": -4,
                "scale": 1.1920928955078125e-07
            },
            {
                "bitwidth": 3,
                "dtype": "int",
                "is_symmetric": "True",
                "max": 0.170089989900589,
                "min": -0.22678664326667786,
                "offset": -4,
                "scale": 0.056696660816669464
            },
            {
                "bitwidth": 3,
                "dtype": "int",
                "is_symmetric": "True",
                "max": 3.5762786865234375e-07,
                "min": -4.76837158203125e-07,
                "offset": -4,
                "scale": 1.1920928955078125e-07
            },
            {
                "bitwidth": 3,
                "dtype": "int",
                "is_symmetric": "True",
                "max": 0.0686439573764801,
                "min": -0.09152527153491974,
                "offset": -4,
                "scale": 0.022881317883729935
            },
            {
                "bitwidth": 3,
                "dtype": "int",
                "is_symmetric": "True",
                "max": 0.06076064705848694,
                "min": -0.08101419359445572,
                "offset": -4,
                "scale": 0.02025354839861393
            },
            {
                "bitwidth": 3,
                "dtype": "int",
                "is_symmetric": "True",
                "max": 0.02438594028353691,
                "min": -0.03251458704471588,
                "offset": -4,
                "scale": 0.00812864676117897
            },
            {
                "bitwidth": 3,
                "dtype": "int",
                "is_symmetric": "True",
                "max": 3.5762786865234375e-07,
                "min": -4.76837158203125e-07,
                "offset": -4,
                "scale": 1.1920928955078125e-07
            },
            {
                "bitwidth": 3,
                "dtype": "int",
                "is_symmetric": "True",
                "max": 0.01876436173915863,
                "min": -0.025019148364663124,
                "offset": -4,
                "scale": 0.006254787091165781
            },
            {
                "bitwidth": 3,
                "dtype": "int",
                "is_symmetric": "True",
                "max": 0.167239248752594,
                "min": -0.2229856550693512,
                "offset": -4,
                "scale": 0.0557464137673378
            },
            {
                "bitwidth": 3,
                "dtype": "int",
                "is_symmetric": "True",
                "max": 0.025172721594572067,
                "min": -0.033563628792762756,
                "offset": -4,
                "scale": 0.008390907198190689
            },
            {
                "bitwidth": 3,
                "dtype": "int",
                "is_symmetric": "True",
                "max": 0.011683778837323189,
                "min": -0.015578372403979301,
                "offset": -4,
                "scale": 0.0038945931009948254
            },
            {
                "bitwidth": 3,
                "dtype": "int",
                "is_symmetric": "True",
                "max": 0.06777936220169067,
                "min": -0.0903724804520607,
                "offset": -4,
                "scale": 0.022593120113015175
            },
            {
                "bitwidth": 3,
                "dtype": "int",
                "is_symmetric": "True",
                "max": 0.01469481736421585,
                "min": -0.019593089818954468,
                "offset": -4,
                "scale": 0.004898272454738617
            },
            {
                "bitwidth": 3,
                "dtype": "int",
                "is_symmetric": "True",
                "max": 0.041515521705150604,
                "min": -0.055354028940200806,
                "offset": -4,
                "scale": 0.013838507235050201
            },
            {
                "bitwidth": 3,
                "dtype": "int",
                "is_symmetric": "True",
                "max": 0.00924932211637497,
                "min": -0.012332429178059101,
                "offset": -4,
                "scale": 0.0030831072945147753
            },
            {
                "bitwidth": 3,
                "dtype": "int",
                "is_symmetric": "True",
                "max": 0.021412895992398262,
                "min": -0.02855052798986435,
                "offset": -4,
                "scale": 0.007137631997466087
            },
            {
                "bitwidth": 3,
                "dtype": "int",
                "is_symmetric": "True",
                "max": 0.16752716898918152,
                "min": -0.2233695536851883,
                "offset": -4,
                "scale": 0.05584238842129707
            },
            {
                "bitwidth": 3,
                "dtype": "int",
                "is_symmetric": "True",
                "max": 0.33760756254196167,
                "min": -0.450143426656723,
                "offset": -4,
                "scale": 0.11253585666418076
            },
            {
                "bitwidth": 3,
                "dtype": "int",
                "is_symmetric": "True",
                "max": 0.026832271367311478,
                "min": -0.03577636182308197,
                "offset": -4,
                "scale": 0.008944090455770493
            },
            {
                "bitwidth": 3,
                "dtype": "int",
                "is_symmetric": "True",
                "max": 0.018615977838635445,
                "min": -0.02482130378484726,
                "offset": -4,
                "scale": 0.006205325946211815
            },
            {
                "bitwidth": 3,
                "dtype": "int",
                "is_symmetric": "True",
                "max": 0.025633275508880615,
                "min": -0.03417770192027092,
                "offset": -4,
                "scale": 0.00854442548006773
            },
            {
                "bitwidth": 3,
                "dtype": "int",
                "is_symmetric": "True",
                "max": 0.06666962802410126,
                "min": -0.08889283984899521,
                "offset": -4,
                "scale": 0.022223209962248802
            },
            {
                "bitwidth": 3,
                "dtype": "int",
                "is_symmetric": "True",
                "max": 0.07193795591592789,
                "min": -0.09591727703809738,
                "offset": -4,
                "scale": 0.023979319259524345
            },
            {
                "bitwidth": 3,
                "dtype": "int",
                "is_symmetric": "True",
                "max": 0.1164255142211914,
                "min": -0.15523402392864227,
                "offset": -4,
                "scale": 0.03880850598216057
            },
            {
                "bitwidth": 3,
                "dtype": "int",
                "is_symmetric": "True",
                "max": 0.05027851462364197,
                "min": -0.06703802198171616,
                "offset": -4,
                "scale": 0.01675950549542904
            },
            {
                "bitwidth": 3,
                "dtype": "int",
                "is_symmetric": "True",
                "max": 0.028953157365322113,
                "min": -0.03860421106219292,
                "offset": -4,
                "scale": 0.00965105276554823
            },
            {
                "bitwidth": 3,
                "dtype": "int",
                "is_symmetric": "True",
                "max": 0.07128677517175674,
                "min": -0.09504903107881546,
                "offset": -4,
                "scale": 0.023762257769703865
            },
            {
                "bitwidth": 3,
                "dtype": "int",
                "is_symmetric": "True",
                "max": 0.04174323379993439,
                "min": -0.05565764382481575,
                "offset": -4,
                "scale": 0.013914410956203938
            },
            {
                "bitwidth": 3,
                "dtype": "int",
                "is_symmetric": "True",
                "max": 0.024259448051452637,
                "min": -0.032345931977033615,
                "offset": -4,
                "scale": 0.008086482994258404
            },
            {
                "bitwidth": 3,
                "dtype": "int",
                "is_symmetric": "True",
                "max": 3.5762786865234375e-07,
                "min": -4.76837158203125e-07,
                "offset": -4,
                "scale": 1.1920928955078125e-07
            },
            {
                "bitwidth": 3,
                "dtype": "int",
                "is_symmetric": "True",
                "max": 0.026873817667365074,
                "min": -0.0358317568898201,
                "offset": -4,
                "scale": 0.008957939222455025
            },
            {
                "bitwidth": 3,
                "dtype": "int",
                "is_symmetric": "True",
                "max": 3.5762786865234375e-07,
                "min": -4.76837158203125e-07,
                "offset": -4,
                "scale": 1.1920928955078125e-07
            },
            {
                "bitwidth": 3,
                "dtype": "int",
                "is_symmetric": "True",
                "max": 0.31698814034461975,
                "min": -0.42265084385871887,
                "offset": -4,
                "scale": 0.10566271096467972
            },
            {
                "bitwidth": 3,
                "dtype": "int",
                "is_symmetric": "True",
                "max": 0.22271199524402618,
                "min": -0.2969493269920349,
                "offset": -4,
                "scale": 0.07423733174800873
            },
            {
                "bitwidth": 3,
                "dtype": "int",
                "is_symmetric": "True",
                "max": 0.12071210145950317,
                "min": -0.1609494686126709,
                "offset": -4,
                "scale": 0.040237367153167725
            },
            {
                "bitwidth": 3,
                "dtype": "int",
                "is_symmetric": "True",
                "max": 0.1069667860865593,
                "min": -0.14262238144874573,
                "offset": -4,
                "scale": 0.03565559536218643
            },
            {
                "bitwidth": 3,
                "dtype": "int",
                "is_symmetric": "True",
                "max": 0.06330376863479614,
                "min": -0.08440502732992172,
                "offset": -4,
                "scale": 0.02110125683248043
            },
            {
                "bitwidth": 3,
                "dtype": "int",
                "is_symmetric": "True",
                "max": 0.07933790236711502,
                "min": -0.1057838723063469,
                "offset": -4,
                "scale": 0.026445968076586723
            },
            {
                "bitwidth": 3,
                "dtype": "int",
                "is_symmetric": "True",
                "max": 0.025292668491601944,
                "min": -0.033723559230566025,
                "offset": -4,
                "scale": 0.008430889807641506
            },
            {
                "bitwidth": 3,
                "dtype": "int",
                "is_symmetric": "True",
                "max": 0.012635819613933563,
                "min": -0.01684775948524475,
                "offset": -4,
                "scale": 0.004211939871311188
            },
            {
                "bitwidth": 3,
                "dtype": "int",
                "is_symmetric": "True",
                "max": 0.18695402145385742,
                "min": -0.24927201867103577,
                "offset": -4,
                "scale": 0.06231800466775894
            },
            {
                "bitwidth": 3,
                "dtype": "int",
                "is_symmetric": "True",
                "max": 3.5762786865234375e-07,
                "min": -4.76837158203125e-07,
                "offset": -4,
                "scale": 1.1920928955078125e-07
            },
            {
                "bitwidth": 3,
                "dtype": "int",
                "is_symmetric": "True",
                "max": 0.094150610268116,
                "min": -0.12553414702415466,
                "offset": -4,
                "scale": 0.031383536756038666
            },
            {
                "bitwidth": 3,
                "dtype": "int",
                "is_symmetric": "True",
                "max": 0.20614802837371826,
                "min": -0.2748640477657318,
                "offset": -4,
                "scale": 0.06871601194143295
            },
            {
                "bitwidth": 3,
                "dtype": "int",
                "is_symmetric": "True",
                "max": 0.09311536699533463,
                "min": -0.12415382266044617,
                "offset": -4,
                "scale": 0.031038455665111542
            },
            {
                "bitwidth": 3,
                "dtype": "int",
                "is_symmetric": "True",
                "max": 0.04606252908706665,
                "min": -0.06141670420765877,
                "offset": -4,
                "scale": 0.015354176051914692
            },
            {
                "bitwidth": 3,
                "dtype": "int",
                "is_symmetric": "True",
                "max": 0.20801591873168945,
                "min": -0.27735456824302673,
                "offset": -4,
                "scale": 0.06933864206075668
            },
            {
                "bitwidth": 3,
                "dtype": "int",
                "is_symmetric": "True",
                "max": 0.00876479223370552,
                "min": -0.01168639026582241,
                "offset": -4,
                "scale": 0.0029215975664556026
            },
            {
                "bitwidth": 3,
                "dtype": "int",
                "is_symmetric": "True",
                "max": 0.13577760756015778,
                "min": -0.1810368150472641,
                "offset": -4,
                "scale": 0.045259203761816025
            },
            {
                "bitwidth": 3,
                "dtype": "int",
                "is_symmetric": "True",
                "max": 0.032706595957279205,
                "min": -0.04360879212617874,
                "offset": -4,
                "scale": 0.010902198031544685
            },
            {
                "bitwidth": 3,
                "dtype": "int",
                "is_symmetric": "True",
                "max": 0.01979062892496586,
                "min": -0.02638750523328781,
                "offset": -4,
                "scale": 0.006596876308321953
            },
            {
                "bitwidth": 3,
                "dtype": "int",
                "is_symmetric": "True",
                "max": 0.03772720322012901,
                "min": -0.050302937626838684,
                "offset": -4,
                "scale": 0.012575734406709671
            },
            {
                "bitwidth": 3,
                "dtype": "int",
                "is_symmetric": "True",
                "max": 0.13684919476509094,
                "min": -0.1824655830860138,
                "offset": -4,
                "scale": 0.04561639577150345
            },
            {
                "bitwidth": 3,
                "dtype": "int",
                "is_symmetric": "True",
                "max": 0.07786670327186584,
                "min": -0.10382227599620819,
                "offset": -4,
                "scale": 0.025955568999052048
            },
            {
                "bitwidth": 3,
                "dtype": "int",
                "is_symmetric": "True",
                "max": 0.007253153249621391,
                "min": -0.009670871309936047,
                "offset": -4,
                "scale": 0.0024177178274840117
            },
            {
                "bitwidth": 3,
                "dtype": "int",
                "is_symmetric": "True",
                "max": 0.02213931828737259,
                "min": -0.029519090428948402,
                "offset": -4,
                "scale": 0.007379772607237101
            },
            {
                "bitwidth": 3,
                "dtype": "int",
                "is_symmetric": "True",
                "max": 0.08420179039239883,
                "min": -0.11226905137300491,
                "offset": -4,
                "scale": 0.02806726284325123
            }
        ],
        "fc.weight": [
            {
                "bitwidth": 3,
                "dtype": "int",
                "is_symmetric": "True",
                "max": 0.21491187810897827,
                "min": -0.2865491807460785,
                "offset": -4,
                "scale": 0.07163729518651962
            },
            {
                "bitwidth": 3,
                "dtype": "int",
                "is_symmetric": "True",
                "max": 0.22013789415359497,
                "min": -0.29351720213890076,
                "offset": -4,
                "scale": 0.07337930053472519
            },
            {
                "bitwidth": 3,
                "dtype": "int",
                "is_symmetric": "True",
                "max": 0.23273247480392456,
                "min": -0.3103099763393402,
                "offset": -4,
                "scale": 0.07757749408483505
            },
            {
                "bitwidth": 3,
                "dtype": "int",
                "is_symmetric": "True",
                "max": 0.21772679686546326,
                "min": -0.2903023958206177,
                "offset": -4,
                "scale": 0.07257559895515442
            },
            {
                "bitwidth": 3,
                "dtype": "int",
                "is_symmetric": "True",
                "max": 0.1971636414527893,
                "min": -0.26288485527038574,
                "offset": -4,
                "scale": 0.06572121381759644
            },
            {
                "bitwidth": 3,
                "dtype": "int",
                "is_symmetric": "True",
                "max": 0.214603453874588,
                "min": -0.2861379384994507,
                "offset": -4,
                "scale": 0.07153448462486267
            },
            {
                "bitwidth": 3,
                "dtype": "int",
                "is_symmetric": "True",
                "max": 0.237867534160614,
                "min": -0.31715670228004456,
                "offset": -4,
                "scale": 0.07928917557001114
            },
            {
                "bitwidth": 3,
                "dtype": "int",
                "is_symmetric": "True",
                "max": 0.2575477361679077,
                "min": -0.34339696168899536,
                "offset": -4,
                "scale": 0.08584924042224884
            },
            {
                "bitwidth": 3,
                "dtype": "int",
                "is_symmetric": "True",
                "max": 0.2411428689956665,
                "min": -0.3215238153934479,
                "offset": -4,
                "scale": 0.08038095384836197
            },
            {
                "bitwidth": 3,
                "dtype": "int",
                "is_symmetric": "True",
                "max": 0.2478632926940918,
                "min": -0.33048439025878906,
                "offset": -4,
                "scale": 0.08262109756469727
            },
            {
                "bitwidth": 3,
                "dtype": "int",
                "is_symmetric": "True",
                "max": 0.21933680772781372,
                "min": -0.29244908690452576,
                "offset": -4,
                "scale": 0.07311227172613144
            },
            {
                "bitwidth": 3,
                "dtype": "int",
                "is_symmetric": "True",
                "max": 0.2551926374435425,
                "min": -0.34025686979293823,
                "offset": -4,
                "scale": 0.08506421744823456
            },
            {
                "bitwidth": 3,
                "dtype": "int",
                "is_symmetric": "True",
                "max": 0.20807555317878723,
                "min": -0.2774340808391571,
                "offset": -4,
                "scale": 0.06935852020978928
            },
            {
                "bitwidth": 3,
                "dtype": "int",
                "is_symmetric": "True",
                "max": 0.24674442410469055,
                "min": -0.3289925754070282,
                "offset": -4,
                "scale": 0.08224814385175705
            },
            {
                "bitwidth": 3,
                "dtype": "int",
                "is_symmetric": "True",
                "max": 0.256169855594635,
                "min": -0.3415597975254059,
                "offset": -4,
                "scale": 0.08538994938135147
            },
            {
                "bitwidth": 3,
                "dtype": "int",
                "is_symmetric": "True",
                "max": 0.21451078355312347,
                "min": -0.2860143780708313,
                "offset": -4,
                "scale": 0.07150359451770782
            },
            {
                "bitwidth": 3,
                "dtype": "int",
                "is_symmetric": "True",
                "max": 0.19914871454238892,
                "min": -0.26553162932395935,
                "offset": -4,
                "scale": 0.06638290733098984
            },
            {
                "bitwidth": 3,
                "dtype": "int",
                "is_symmetric": "True",
                "max": 0.2193632572889328,
                "min": -0.2924843430519104,
                "offset": -4,
                "scale": 0.0731210857629776
            },
            {
                "bitwidth": 3,
                "dtype": "int",
                "is_symmetric": "True",
                "max": 0.19450536370277405,
                "min": -0.2593404948711395,
                "offset": -4,
                "scale": 0.06483512371778488
            },
            {
                "bitwidth": 3,
                "dtype": "int",
                "is_symmetric": "True",
                "max": 0.24839361011981964,
                "min": -0.3311914801597595,
                "offset": -4,
                "scale": 0.08279787003993988
            },
            {
                "bitwidth": 3,
                "dtype": "int",
                "is_symmetric": "True",
                "max": 0.23089447617530823,
                "min": -0.30785930156707764,
                "offset": -4,
                "scale": 0.07696482539176941
            },
            {
                "bitwidth": 3,
                "dtype": "int",
                "is_symmetric": "True",
                "max": 0.1901002675294876,
                "min": -0.25346702337265015,
                "offset": -4,
                "scale": 0.06336675584316254
            },
            {
                "bitwidth": 3,
                "dtype": "int",
                "is_symmetric": "True",
                "max": 0.23819951713085175,
                "min": -0.317599356174469,
                "offset": -4,
                "scale": 0.07939983904361725
            },
            {
                "bitwidth": 3,
                "dtype": "int",
                "is_symmetric": "True",
                "max": 0.21644040942192078,
                "min": -0.28858721256256104,
                "offset": -4,
                "scale": 0.07214680314064026
            },
            {
                "bitwidth": 3,
                "dtype": "int",
                "is_symmetric": "True",
                "max": 0.21299177408218384,
                "min": -0.2839890420436859,
                "offset": -4,
                "scale": 0.07099726051092148
            },
            {
                "bitwidth": 3,
                "dtype": "int",
                "is_symmetric": "True",
                "max": 0.2135390192270279,
                "min": -0.28471869230270386,
                "offset": -4,
                "scale": 0.07117967307567596
            },
            {
                "bitwidth": 3,
                "dtype": "int",
                "is_symmetric": "True",
                "max": 0.23040345311164856,
                "min": -0.30720460414886475,
                "offset": -4,
                "scale": 0.07680115103721619
            },
            {
                "bitwidth": 3,
                "dtype": "int",
                "is_symmetric": "True",
                "max": 0.21447905898094177,
                "min": -0.28597208857536316,
                "offset": -4,
                "scale": 0.07149302214384079
            },
            {
                "bitwidth": 3,
                "dtype": "int",
                "is_symmetric": "True",
                "max": 0.2324487268924713,
                "min": -0.3099316358566284,
                "offset": -4,
                "scale": 0.0774829089641571
            },
            {
                "bitwidth": 3,
                "dtype": "int",
                "is_symmetric": "True",
                "max": 0.2507331371307373,
                "min": -0.3343108296394348,
                "offset": -4,
                "scale": 0.0835777074098587
            },
            {
                "bitwidth": 3,
                "dtype": "int",
                "is_symmetric": "True",
                "max": 0.2140669822692871,
                "min": -0.2854226529598236,
                "offset": -4,
                "scale": 0.0713556632399559
            },
            {
                "bitwidth": 3,
                "dtype": "int",
                "is_symmetric": "True",
                "max": 0.2128017246723175,
                "min": -0.28373563289642334,
                "offset": -4,
                "scale": 0.07093390822410583
            },
            {
                "bitwidth": 3,
                "dtype": "int",
                "is_symmetric": "True",
                "max": 0.2027607411146164,
                "min": -0.2703476548194885,
                "offset": -4,
                "scale": 0.06758691370487213
            },
            {
                "bitwidth": 3,
                "dtype": "int",
                "is_symmetric": "True",
                "max": 0.24783705174922943,
                "min": -0.3304494023323059,
                "offset": -4,
                "scale": 0.08261235058307648
            },
            {
                "bitwidth": 3,
                "dtype": "int",
                "is_symmetric": "True",
                "max": 0.22376549243927002,
                "min": -0.29835399985313416,
                "offset": -4,
                "scale": 0.07458849996328354
            },
            {
                "bitwidth": 3,
                "dtype": "int",
                "is_symmetric": "True",
                "max": 0.23257261514663696,
                "min": -0.3100968301296234,
                "offset": -4,
                "scale": 0.07752420753240585
            },
            {
                "bitwidth": 3,
                "dtype": "int",
                "is_symmetric": "True",
                "max": 0.2109541893005371,
                "min": -0.2812722623348236,
                "offset": -4,
                "scale": 0.0703180655837059
            },
            {
                "bitwidth": 3,
                "dtype": "int",
                "is_symmetric": "True",
                "max": 0.22687335312366486,
                "min": -0.3024978041648865,
                "offset": -4,
                "scale": 0.07562445104122162
            },
            {
                "bitwidth": 3,
                "dtype": "int",
                "is_symmetric": "True",
                "max": 0.21181142330169678,
                "min": -0.2824152410030365,
                "offset": -4,
                "scale": 0.07060381025075912
            },
            {
                "bitwidth": 3,
                "dtype": "int",
                "is_symmetric": "True",
                "max": 0.23319317400455475,
                "min": -0.310924232006073,
                "offset": -4,
                "scale": 0.07773105800151825
            },
            {
                "bitwidth": 3,
                "dtype": "int",
                "is_symmetric": "True",
                "max": 0.22264449298381805,
                "min": -0.2968593239784241,
                "offset": -4,
                "scale": 0.07421483099460602
            },
            {
                "bitwidth": 3,
                "dtype": "int",
                "is_symmetric": "True",
                "max": 0.2233612835407257,
                "min": -0.2978150546550751,
                "offset": -4,
                "scale": 0.07445376366376877
            },
            {
                "bitwidth": 3,
                "dtype": "int",
                "is_symmetric": "True",
                "max": 0.20492877066135406,
                "min": -0.2732383608818054,
                "offset": -4,
                "scale": 0.06830959022045135
            },
            {
                "bitwidth": 3,
                "dtype": "int",
                "is_symmetric": "True",
                "max": 0.21817618608474731,
                "min": -0.2909015715122223,
                "offset": -4,
                "scale": 0.07272539287805557
            },
            {
                "bitwidth": 3,
                "dtype": "int",
                "is_symmetric": "True",
                "max": 0.2087985873222351,
                "min": -0.2783981263637543,
                "offset": -4,
                "scale": 0.06959953159093857
            },
            {
                "bitwidth": 3,
                "dtype": "int",
                "is_symmetric": "True",
                "max": 0.21495461463928223,
                "min": -0.28660616278648376,
                "offset": -4,
                "scale": 0.07165154069662094
            },
            {
                "bitwidth": 3,
                "dtype": "int",
                "is_symmetric": "True",
                "max": 0.22849494218826294,
                "min": -0.3046599328517914,
                "offset": -4,
                "scale": 0.07616498321294785
            },
            {
                "bitwidth": 3,
                "dtype": "int",
                "is_symmetric": "True",
                "max": 0.2049499750137329,
                "min": -0.27326664328575134,
                "offset": -4,
                "scale": 0.06831666082143784
            },
            {
                "bitwidth": 3,
                "dtype": "int",
                "is_symmetric": "True",
                "max": 0.2218039333820343,
                "min": -0.2957385778427124,
                "offset": -4,
                "scale": 0.0739346444606781
            },
            {
                "bitwidth": 3,
                "dtype": "int",
                "is_symmetric": "True",
                "max": 0.22689056396484375,
                "min": -0.302520751953125,
                "offset": -4,
                "scale": 0.07563018798828125
            },
            {
                "bitwidth": 3,
                "dtype": "int",
                "is_symmetric": "True",
                "max": 0.24677243828773499,
                "min": -0.32902991771698,
                "offset": -4,
                "scale": 0.082257479429245
            },
            {
                "bitwidth": 3,
                "dtype": "int",
                "is_symmetric": "True",
                "max": 0.2696529030799866,
                "min": -0.3595372140407562,
                "offset": -4,
                "scale": 0.08988430351018906
            },
            {
                "bitwidth": 3,
                "dtype": "int",
                "is_symmetric": "True",
                "max": 0.2107812762260437,
                "min": -0.2810417115688324,
                "offset": -4,
                "scale": 0.0702604278922081
            },
            {
                "bitwidth": 3,
                "dtype": "int",
                "is_symmetric": "True",
                "max": 0.22801023721694946,
                "min": -0.3040136396884918,
                "offset": -4,
                "scale": 0.07600340992212296
            },
            {
                "bitwidth": 3,
                "dtype": "int",
                "is_symmetric": "True",
                "max": 0.21521717309951782,
                "min": -0.28695622086524963,
                "offset": -4,
                "scale": 0.07173905521631241
            },
            {
                "bitwidth": 3,
                "dtype": "int",
                "is_symmetric": "True",
                "max": 0.21457409858703613,
                "min": -0.28609880805015564,
                "offset": -4,
                "scale": 0.07152470201253891
            },
            {
                "bitwidth": 3,
                "dtype": "int",
                "is_symmetric": "True",
                "max": 0.24908137321472168,
                "min": -0.3321084976196289,
                "offset": -4,
                "scale": 0.08302712440490723
            },
            {
                "bitwidth": 3,
                "dtype": "int",
                "is_symmetric": "True",
                "max": 0.2506639361381531,
                "min": -0.3342185914516449,
                "offset": -4,
                "scale": 0.08355464786291122
            },
            {
                "bitwidth": 3,
                "dtype": "int",
                "is_symmetric": "True",
                "max": 0.23435376584529877,
                "min": -0.3124716877937317,
                "offset": -4,
                "scale": 0.07811792194843292
            },
            {
                "bitwidth": 3,
                "dtype": "int",
                "is_symmetric": "True",
                "max": 0.19300223886966705,
                "min": -0.2573363184928894,
                "offset": -4,
                "scale": 0.06433407962322235
            },
            {
                "bitwidth": 3,
                "dtype": "int",
                "is_symmetric": "True",
                "max": 0.21373271942138672,
                "min": -0.2849769592285156,
                "offset": -4,
                "scale": 0.0712442398071289
            },
            {
                "bitwidth": 3,
                "dtype": "int",
                "is_symmetric": "True",
                "max": 0.2964186668395996,
                "min": -0.3952248692512512,
                "offset": -4,
                "scale": 0.0988062173128128
            },
            {
                "bitwidth": 3,
                "dtype": "int",
                "is_symmetric": "True",
                "max": 0.23293402791023254,
                "min": -0.31057870388031006,
                "offset": -4,
                "scale": 0.07764467597007751
            },
            {
                "bitwidth": 3,
                "dtype": "int",
                "is_symmetric": "True",
                "max": 0.22414138913154602,
                "min": -0.298855185508728,
                "offset": -4,
                "scale": 0.074713796377182
            },
            {
                "bitwidth": 3,
                "dtype": "int",
                "is_symmetric": "True",
                "max": 0.22526822984218597,
                "min": -0.3003576397895813,
                "offset": -4,
                "scale": 0.07508940994739532
            },
            {
                "bitwidth": 3,
                "dtype": "int",
                "is_symmetric": "True",
                "max": 0.26701563596725464,
                "min": -0.35602083802223206,
                "offset": -4,
                "scale": 0.08900520950555801
            },
            {
                "bitwidth": 3,
                "dtype": "int",
                "is_symmetric": "True",
                "max": 0.22033917903900146,
                "min": -0.29378557205200195,
                "offset": -4,
                "scale": 0.07344639301300049
            },
            {
                "bitwidth": 3,
                "dtype": "int",
                "is_symmetric": "True",
                "max": 0.22001183032989502,
                "min": -0.29334911704063416,
                "offset": -4,
                "scale": 0.07333727926015854
            },
            {
                "bitwidth": 3,
                "dtype": "int",
                "is_symmetric": "True",
                "max": 0.21052958071231842,
                "min": -0.28070610761642456,
                "offset": -4,
                "scale": 0.07017652690410614
            },
            {
                "bitwidth": 3,
                "dtype": "int",
                "is_symmetric": "True",
                "max": 0.2340007871389389,
                "min": -0.3120010495185852,
                "offset": -4,
                "scale": 0.0780002623796463
            },
            {
                "bitwidth": 3,
                "dtype": "int",
                "is_symmetric": "True",
                "max": 0.2303316593170166,
                "min": -0.30710887908935547,
                "offset": -4,
                "scale": 0.07677721977233887
            },
            {
                "bitwidth": 3,
                "dtype": "int",
                "is_symmetric": "True",
                "max": 0.23153191804885864,
                "min": -0.3087092339992523,
                "offset": -4,
                "scale": 0.07717730849981308
            },
            {
                "bitwidth": 3,
                "dtype": "int",
                "is_symmetric": "True",
                "max": 0.2774111330509186,
                "min": -0.3698815107345581,
                "offset": -4,
                "scale": 0.09247037768363953
            },
            {
                "bitwidth": 3,
                "dtype": "int",
                "is_symmetric": "True",
                "max": 0.24679404497146606,
                "min": -0.3290587365627289,
                "offset": -4,
                "scale": 0.08226468414068222
            },
            {
                "bitwidth": 3,
                "dtype": "int",
                "is_symmetric": "True",
                "max": 0.23205792903900146,
                "min": -0.30941057205200195,
                "offset": -4,
                "scale": 0.07735264301300049
            },
            {
                "bitwidth": 3,
                "dtype": "int",
                "is_symmetric": "True",
                "max": 0.2531312108039856,
                "min": -0.33750829100608826,
                "offset": -4,
                "scale": 0.08437707275152206
            },
            {
                "bitwidth": 3,
                "dtype": "int",
                "is_symmetric": "True",
                "max": 0.24144145846366882,
                "min": -0.3219219446182251,
                "offset": -4,
                "scale": 0.08048048615455627
            },
            {
                "bitwidth": 3,
                "dtype": "int",
                "is_symmetric": "True",
                "max": 0.20958222448825836,
                "min": -0.2794429659843445,
                "offset": -4,
                "scale": 0.06986074149608612
            },
            {
                "bitwidth": 3,
                "dtype": "int",
                "is_symmetric": "True",
                "max": 0.23689162731170654,
                "min": -0.3158555030822754,
                "offset": -4,
                "scale": 0.07896387577056885
            },
            {
                "bitwidth": 3,
                "dtype": "int",
                "is_symmetric": "True",
                "max": 0.25533372163772583,
                "min": -0.340444952249527,
                "offset": -4,
                "scale": 0.08511123806238174
            },
            {
                "bitwidth": 3,
                "dtype": "int",
                "is_symmetric": "True",
                "max": 0.23121307790279388,
                "min": -0.30828410387039185,
                "offset": -4,
                "scale": 0.07707102596759796
            },
            {
                "bitwidth": 3,
                "dtype": "int",
                "is_symmetric": "True",
                "max": 0.22183531522750854,
                "min": -0.2957804203033447,
                "offset": -4,
                "scale": 0.07394510507583618
            },
            {
                "bitwidth": 3,
                "dtype": "int",
                "is_symmetric": "True",
                "max": 0.19527862966060638,
                "min": -0.26037150621414185,
                "offset": -4,
                "scale": 0.06509287655353546
            },
            {
                "bitwidth": 3,
                "dtype": "int",
                "is_symmetric": "True",
                "max": 0.21669751405715942,
                "min": -0.2889300286769867,
                "offset": -4,
                "scale": 0.07223250716924667
            },
            {
                "bitwidth": 3,
                "dtype": "int",
                "is_symmetric": "True",
                "max": 0.26577162742614746,
                "min": -0.3543621599674225,
                "offset": -4,
                "scale": 0.08859053999185562
            },
            {
                "bitwidth": 3,
                "dtype": "int",
                "is_symmetric": "True",
                "max": 0.22093182802200317,
                "min": -0.2945757806301117,
                "offset": -4,
                "scale": 0.07364394515752792
            },
            {
                "bitwidth": 3,
                "dtype": "int",
                "is_symmetric": "True",
                "max": 0.20391392707824707,
                "min": -0.2718852460384369,
                "offset": -4,
                "scale": 0.06797131150960922
            },
            {
                "bitwidth": 3,
                "dtype": "int",
                "is_symmetric": "True",
                "max": 0.23150096833705902,
                "min": -0.30866795778274536,
                "offset": -4,
                "scale": 0.07716698944568634
            },
            {
                "bitwidth": 3,
                "dtype": "int",
                "is_symmetric": "True",
                "max": 0.20411741733551025,
                "min": -0.27215656638145447,
                "offset": -4,
                "scale": 0.06803914159536362
            },
            {
                "bitwidth": 3,
                "dtype": "int",
                "is_symmetric": "True",
                "max": 0.22963568568229675,
                "min": -0.3061809241771698,
                "offset": -4,
                "scale": 0.07654523104429245
            },
            {
                "bitwidth": 3,
                "dtype": "int",
                "is_symmetric": "True",
                "max": 0.22236263751983643,
                "min": -0.29648351669311523,
                "offset": -4,
                "scale": 0.07412087917327881
            },
            {
                "bitwidth": 3,
                "dtype": "int",
                "is_symmetric": "True",
                "max": 0.20515668392181396,
                "min": -0.27354225516319275,
                "offset": -4,
                "scale": 0.06838556379079819
            },
            {
                "bitwidth": 3,
                "dtype": "int",
                "is_symmetric": "True",
                "max": 0.20428800582885742,
                "min": -0.27238401770591736,
                "offset": -4,
                "scale": 0.06809600442647934
            },
            {
                "bitwidth": 3,
                "dtype": "int",
                "is_symmetric": "True",
                "max": 0.21974042057991028,
                "min": -0.29298722743988037,
                "offset": -4,
                "scale": 0.07324680685997009
            },
            {
                "bitwidth": 3,
                "dtype": "int",
                "is_symmetric": "True",
                "max": 0.22016170620918274,
                "min": -0.29354894161224365,
                "offset": -4,
                "scale": 0.07338723540306091
            },
            {
                "bitwidth": 3,
                "dtype": "int",
                "is_symmetric": "True",
                "max": 0.2012115865945816,
                "min": -0.26828211545944214,
                "offset": -4,
                "scale": 0.06707052886486053
            },
            {
                "bitwidth": 3,
                "dtype": "int",
                "is_symmetric": "True",
                "max": 0.19191192090511322,
                "min": -0.2558825612068176,
                "offset": -4,
                "scale": 0.0639706403017044
            },
            {
                "bitwidth": 3,
                "dtype": "int",
                "is_symmetric": "True",
                "max": 0.21881867945194244,
                "min": -0.2917582392692566,
                "offset": -4,
                "scale": 0.07293955981731415
            },
            {
                "bitwidth": 3,
                "dtype": "int",
                "is_symmetric": "True",
                "max": 0.22947312891483307,
                "min": -0.3059641718864441,
                "offset": -4,
                "scale": 0.07649104297161102
            },
            {
                "bitwidth": 3,
                "dtype": "int",
                "is_symmetric": "True",
                "max": 0.2119879424571991,
                "min": -0.28265058994293213,
                "offset": -4,
                "scale": 0.07066264748573303
            },
            {
                "bitwidth": 3,
                "dtype": "int",
                "is_symmetric": "True",
                "max": 0.23688733577728271,
                "min": -0.31584978103637695,
                "offset": -4,
                "scale": 0.07896244525909424
            },
            {
                "bitwidth": 3,
                "dtype": "int",
                "is_symmetric": "True",
                "max": 0.22716088593006134,
                "min": -0.3028811812400818,
                "offset": -4,
                "scale": 0.07572029531002045
            },
            {
                "bitwidth": 3,
                "dtype": "int",
                "is_symmetric": "True",
                "max": 0.22222864627838135,
                "min": -0.296304851770401,
                "offset": -4,
                "scale": 0.07407621294260025
            },
            {
                "bitwidth": 3,
                "dtype": "int",
                "is_symmetric": "True",
                "max": 0.22835317254066467,
                "min": -0.30447089672088623,
                "offset": -4,
                "scale": 0.07611772418022156
            },
            {
                "bitwidth": 3,
                "dtype": "int",
                "is_symmetric": "True",
                "max": 0.2226596176624298,
                "min": -0.29687950015068054,
                "offset": -4,
                "scale": 0.07421987503767014
            },
            {
                "bitwidth": 3,
                "dtype": "int",
                "is_symmetric": "True",
                "max": 0.21367314457893372,
                "min": -0.2848975360393524,
                "offset": -4,
                "scale": 0.0712243840098381
            },
            {
                "bitwidth": 3,
                "dtype": "int",
                "is_symmetric": "True",
                "max": 0.19065503776073456,
                "min": -0.25420671701431274,
                "offset": -4,
                "scale": 0.06355167925357819
            },
            {
                "bitwidth": 3,
                "dtype": "int",
                "is_symmetric": "True",
                "max": 0.25669798254966736,
                "min": -0.34226396679878235,
                "offset": -4,
                "scale": 0.08556599169969559
            },
            {
                "bitwidth": 3,
                "dtype": "int",
                "is_symmetric": "True",
                "max": 0.23372715711593628,
                "min": -0.31163620948791504,
                "offset": -4,
                "scale": 0.07790905237197876
            },
            {
                "bitwidth": 3,
                "dtype": "int",
                "is_symmetric": "True",
                "max": 0.21761739253997803,
                "min": -0.2901565134525299,
                "offset": -4,
                "scale": 0.07253912836313248
            },
            {
                "bitwidth": 3,
                "dtype": "int",
                "is_symmetric": "True",
                "max": 0.26091432571411133,
                "min": -0.34788575768470764,
                "offset": -4,
                "scale": 0.08697143942117691
            },
            {
                "bitwidth": 3,
                "dtype": "int",
                "is_symmetric": "True",
                "max": 0.23728886246681213,
                "min": -0.3163851499557495,
                "offset": -4,
                "scale": 0.07909628748893738
            },
            {
                "bitwidth": 3,
                "dtype": "int",
                "is_symmetric": "True",
                "max": 0.21810105443000793,
                "min": -0.29080140590667725,
                "offset": -4,
                "scale": 0.07270035147666931
            },
            {
                "bitwidth": 3,
                "dtype": "int",
                "is_symmetric": "True",
                "max": 0.2080913782119751,
                "min": -0.2774551808834076,
                "offset": -4,
                "scale": 0.0693637952208519
            },
            {
                "bitwidth": 3,
                "dtype": "int",
                "is_symmetric": "True",
                "max": 0.22176289558410645,
                "min": -0.2956838607788086,
                "offset": -4,
                "scale": 0.07392096519470215
            },
            {
                "bitwidth": 3,
                "dtype": "int",
                "is_symmetric": "True",
                "max": 0.24860435724258423,
                "min": -0.3314724862575531,
                "offset": -4,
                "scale": 0.08286812156438828
            },
            {
                "bitwidth": 3,
                "dtype": "int",
                "is_symmetric": "True",
                "max": 0.2113579511642456,
                "min": -0.28181061148643494,
                "offset": -4,
                "scale": 0.07045265287160873
            },
            {
                "bitwidth": 3,
                "dtype": "int",
                "is_symmetric": "True",
                "max": 0.2142721563577652,
                "min": -0.28569620847702026,
                "offset": -4,
                "scale": 0.07142405211925507
            },
            {
                "bitwidth": 3,
                "dtype": "int",
                "is_symmetric": "True",
                "max": 0.24122647941112518,
                "min": -0.32163530588150024,
                "offset": -4,
                "scale": 0.08040882647037506
            },
            {
                "bitwidth": 3,
                "dtype": "int",
                "is_symmetric": "True",
                "max": 0.21407550573349,
                "min": -0.2854340076446533,
                "offset": -4,
                "scale": 0.07135850191116333
            },
            {
                "bitwidth": 3,
                "dtype": "int",
                "is_symmetric": "True",
                "max": 0.22478926181793213,
                "min": -0.2997190058231354,
                "offset": -4,
                "scale": 0.07492975145578384
            },
            {
                "bitwidth": 3,
                "dtype": "int",
                "is_symmetric": "True",
                "max": 0.27301836013793945,
                "min": -0.36402446031570435,
                "offset": -4,
                "scale": 0.09100611507892609
            },
            {
                "bitwidth": 3,
                "dtype": "int",
                "is_symmetric": "True",
                "max": 0.24450808763504028,
                "min": -0.3260107934474945,
                "offset": -4,
                "scale": 0.08150269836187363
            },
            {
                "bitwidth": 3,
                "dtype": "int",
                "is_symmetric": "True",
                "max": 0.23134982585906982,
                "min": -0.30846643447875977,
                "offset": -4,
                "scale": 0.07711660861968994
            },
            {
                "bitwidth": 3,
                "dtype": "int",
                "is_symmetric": "True",
                "max": 0.22822493314743042,
                "min": -0.304299920797348,
                "offset": -4,
                "scale": 0.076074980199337
            },
            {
                "bitwidth": 3,
                "dtype": "int",
                "is_symmetric": "True",
                "max": 0.24701762199401855,
                "min": -0.3293568193912506,
                "offset": -4,
                "scale": 0.08233920484781265
            },
            {
                "bitwidth": 3,
                "dtype": "int",
                "is_symmetric": "True",
                "max": 0.22916391491889954,
                "min": -0.3055518865585327,
                "offset": -4,
                "scale": 0.07638797163963318
            },
            {
                "bitwidth": 3,
                "dtype": "int",
                "is_symmetric": "True",
                "max": 0.22480331361293793,
                "min": -0.29973775148391724,
                "offset": -4,
                "scale": 0.07493443787097931
            },
            {
                "bitwidth": 3,
                "dtype": "int",
                "is_symmetric": "True",
                "max": 0.20595508813858032,
                "min": -0.2746067941188812,
                "offset": -4,
                "scale": 0.0686516985297203
            },
            {
                "bitwidth": 3,
                "dtype": "int",
                "is_symmetric": "True",
                "max": 0.23860909044742584,
                "min": -0.3181454539299011,
                "offset": -4,
                "scale": 0.07953636348247528
            },
            {
                "bitwidth": 3,
                "dtype": "int",
                "is_symmetric": "True",
                "max": 0.2500147223472595,
                "min": -0.3333529531955719,
                "offset": -4,
                "scale": 0.08333823829889297
            },
            {
                "bitwidth": 3,
                "dtype": "int",
                "is_symmetric": "True",
                "max": 0.21069598197937012,
                "min": -0.28092798590660095,
                "offset": -4,
                "scale": 0.07023199647665024
            },
            {
                "bitwidth": 3,
                "dtype": "int",
                "is_symmetric": "True",
                "max": 0.20586621761322021,
                "min": -0.27448830008506775,
                "offset": -4,
                "scale": 0.06862207502126694
            },
            {
                "bitwidth": 3,
                "dtype": "int",
                "is_symmetric": "True",
                "max": 0.23664088547229767,
                "min": -0.3155211806297302,
                "offset": -4,
                "scale": 0.07888029515743256
            },
            {
                "bitwidth": 3,
                "dtype": "int",
                "is_symmetric": "True",
                "max": 0.2257532775402069,
                "min": -0.3010043799877167,
                "offset": -4,
                "scale": 0.07525109499692917
            },
            {
                "bitwidth": 3,
                "dtype": "int",
                "is_symmetric": "True",
                "max": 0.21074149012565613,
                "min": -0.2809886634349823,
                "offset": -4,
                "scale": 0.07024716585874557
            },
            {
                "bitwidth": 3,
                "dtype": "int",
                "is_symmetric": "True",
                "max": 0.23257896304130554,
                "min": -0.3101052939891815,
                "offset": -4,
                "scale": 0.07752632349729538
            },
            {
                "bitwidth": 3,
                "dtype": "int",
                "is_symmetric": "True",
                "max": 0.2510005235671997,
                "min": -0.3346673548221588,
                "offset": -4,
                "scale": 0.0836668387055397
            },
            {
                "bitwidth": 3,
                "dtype": "int",
                "is_symmetric": "True",
                "max": 0.2417515516281128,
                "min": -0.3223353922367096,
                "offset": -4,
                "scale": 0.0805838480591774
            },
            {
                "bitwidth": 3,
                "dtype": "int",
                "is_symmetric": "True",
                "max": 0.2080066204071045,
                "min": -0.27734217047691345,
                "offset": -4,
                "scale": 0.06933554261922836
            },
            {
                "bitwidth": 3,
                "dtype": "int",
                "is_symmetric": "True",
                "max": 0.20860008895397186,
                "min": -0.27813345193862915,
                "offset": -4,
                "scale": 0.06953336298465729
            },
            {
                "bitwidth": 3,
                "dtype": "int",
                "is_symmetric": "True",
                "max": 0.2203928828239441,
                "min": -0.2938571870326996,
                "offset": -4,
                "scale": 0.0734642967581749
            },
            {
                "bitwidth": 3,
                "dtype": "int",
                "is_symmetric": "True",
                "max": 0.20771676301956177,
                "min": -0.2769556939601898,
                "offset": -4,
                "scale": 0.06923892349004745
            },
            {
                "bitwidth": 3,
                "dtype": "int",
                "is_symmetric": "True",
                "max": 0.20792418718338013,
                "min": -0.27723225951194763,
                "offset": -4,
                "scale": 0.06930806487798691
            },
            {
                "bitwidth": 3,
                "dtype": "int",
                "is_symmetric": "True",
                "max": 0.23854327201843262,
                "min": -0.31805768609046936,
                "offset": -4,
                "scale": 0.07951442152261734
            },
            {
                "bitwidth": 3,
                "dtype": "int",
                "is_symmetric": "True",
                "max": 0.25210559368133545,
                "min": -0.33614081144332886,
                "offset": -4,
                "scale": 0.08403520286083221
            },
            {
                "bitwidth": 3,
                "dtype": "int",
                "is_symmetric": "True",
                "max": 0.20517446100711823,
                "min": -0.27356594800949097,
                "offset": -4,
                "scale": 0.06839148700237274
            },
            {
                "bitwidth": 3,
                "dtype": "int",
                "is_symmetric": "True",
                "max": 0.22996433079242706,
                "min": -0.3066191077232361,
                "offset": -4,
                "scale": 0.07665477693080902
            },
            {
                "bitwidth": 3,
                "dtype": "int",
                "is_symmetric": "True",
                "max": 0.23647856712341309,
                "min": -0.3153047561645508,
                "offset": -4,
                "scale": 0.0788261890411377
            },
            {
                "bitwidth": 3,
                "dtype": "int",
                "is_symmetric": "True",
                "max": 0.2152099907398224,
                "min": -0.2869466543197632,
                "offset": -4,
                "scale": 0.0717366635799408
            },
            {
                "bitwidth": 3,
                "dtype": "int",
                "is_symmetric": "True",
                "max": 0.23262488842010498,
                "min": -0.31016650795936584,
                "offset": -4,
                "scale": 0.07754162698984146
            },
            {
                "bitwidth": 3,
                "dtype": "int",
                "is_symmetric": "True",
                "max": 0.16957363486289978,
                "min": -0.2260981798171997,
                "offset": -4,
                "scale": 0.05652454495429993
            },
            {
                "bitwidth": 3,
                "dtype": "int",
                "is_symmetric": "True",
                "max": 0.20068106055259705,
                "min": -0.2675747573375702,
                "offset": -4,
                "scale": 0.06689368933439255
            },
            {
                "bitwidth": 3,
                "dtype": "int",
                "is_symmetric": "True",
                "max": 0.19472047686576843,
                "min": -0.2596273124217987,
                "offset": -4,
                "scale": 0.06490682810544968
            },
            {
                "bitwidth": 3,
                "dtype": "int",
                "is_symmetric": "True",
                "max": 0.20153847336769104,
                "min": -0.2687179744243622,
                "offset": -4,
                "scale": 0.06717949360609055
            },
            {
                "bitwidth": 3,
                "dtype": "int",
                "is_symmetric": "True",
                "max": 0.1898956149816513,
                "min": -0.2531941533088684,
                "offset": -4,
                "scale": 0.0632985383272171
            },
            {
                "bitwidth": 3,
                "dtype": "int",
                "is_symmetric": "True",
                "max": 0.22958195209503174,
                "min": -0.3061092793941498,
                "offset": -4,
                "scale": 0.07652731984853745
            },
            {
                "bitwidth": 3,
                "dtype": "int",
                "is_symmetric": "True",
                "max": 0.21066102385520935,
                "min": -0.2808813750743866,
                "offset": -4,
                "scale": 0.07022034376859665
            },
            {
                "bitwidth": 3,
                "dtype": "int",
                "is_symmetric": "True",
                "max": 0.18226823210716248,
                "min": -0.2430243194103241,
                "offset": -4,
                "scale": 0.060756079852581024
            },
            {
                "bitwidth": 3,
                "dtype": "int",
                "is_symmetric": "True",
                "max": 0.18036866188049316,
                "min": -0.24049155414104462,
                "offset": -4,
                "scale": 0.060122888535261154
            },
            {
                "bitwidth": 3,
                "dtype": "int",
                "is_symmetric": "True",
                "max": 0.23746562004089355,
                "min": -0.3166208267211914,
                "offset": -4,
                "scale": 0.07915520668029785
            },
            {
                "bitwidth": 3,
                "dtype": "int",
                "is_symmetric": "True",
                "max": 0.21076473593711853,
                "min": -0.2810196578502655,
                "offset": -4,
                "scale": 0.07025491446256638
            },
            {
                "bitwidth": 3,
                "dtype": "int",
                "is_symmetric": "True",
                "max": 0.20446127653121948,
                "min": -0.2726150453090668,
                "offset": -4,
                "scale": 0.0681537613272667
            },
            {
                "bitwidth": 3,
                "dtype": "int",
                "is_symmetric": "True",
                "max": 0.18911957740783691,
                "min": -0.25215944647789,
                "offset": -4,
                "scale": 0.0630398616194725
            },
            {
                "bitwidth": 3,
                "dtype": "int",
                "is_symmetric": "True",
                "max": 0.22477245330810547,
                "min": -0.29969659447669983,
                "offset": -4,
                "scale": 0.07492414861917496
            },
            {
                "bitwidth": 3,
                "dtype": "int",
                "is_symmetric": "True",
                "max": 0.22419941425323486,
                "min": -0.2989325523376465,
                "offset": -4,
                "scale": 0.07473313808441162
            },
            {
                "bitwidth": 3,
                "dtype": "int",
                "is_symmetric": "True",
                "max": 0.2131475955247879,
                "min": -0.28419679403305054,
                "offset": -4,
                "scale": 0.07104919850826263
            },
            {
                "bitwidth": 3,
                "dtype": "int",
                "is_symmetric": "True",
                "max": 0.21651770174503326,
                "min": -0.2886902689933777,
                "offset": -4,
                "scale": 0.07217256724834442
            },
            {
                "bitwidth": 3,
                "dtype": "int",
                "is_symmetric": "True",
                "max": 0.17780636250972748,
                "min": -0.23707515001296997,
                "offset": -4,
                "scale": 0.05926878750324249
            },
            {
                "bitwidth": 3,
                "dtype": "int",
                "is_symmetric": "True",
                "max": 0.2200632095336914,
                "min": -0.2934176027774811,
                "offset": -4,
                "scale": 0.07335440069437027
            },
            {
                "bitwidth": 3,
                "dtype": "int",
                "is_symmetric": "True",
                "max": 0.2039792239665985,
                "min": -0.27197229862213135,
                "offset": -4,
                "scale": 0.06799307465553284
            },
            {
                "bitwidth": 3,
                "dtype": "int",
                "is_symmetric": "True",
                "max": 0.1920262724161148,
                "min": -0.2560350298881531,
                "offset": -4,
                "scale": 0.06400875747203827
            },
            {
                "bitwidth": 3,
                "dtype": "int",
                "is_symmetric": "True",
                "max": 0.1920153796672821,
                "min": -0.25602051615715027,
                "offset": -4,
                "scale": 0.06400512903928757
            },
            {
                "bitwidth": 3,
                "dtype": "int",
                "is_symmetric": "True",
                "max": 0.21202750504016876,
                "min": -0.28270334005355835,
                "offset": -4,
                "scale": 0.07067583501338959
            },
            {
                "bitwidth": 3,
                "dtype": "int",
                "is_symmetric": "True",
                "max": 0.22606046497821808,
                "min": -0.30141395330429077,
                "offset": -4,
                "scale": 0.07535348832607269
            },
            {
                "bitwidth": 3,
                "dtype": "int",
                "is_symmetric": "True",
                "max": 0.1864992082118988,
                "min": -0.24866561591625214,
                "offset": -4,
                "scale": 0.062166403979063034
            },
            {
                "bitwidth": 3,
                "dtype": "int",
                "is_symmetric": "True",
                "max": 0.19854788482189178,
                "min": -0.2647305130958557,
                "offset": -4,
                "scale": 0.06618262827396393
            },
            {
                "bitwidth": 3,
                "dtype": "int",
                "is_symmetric": "True",
                "max": 0.23447562754154205,
                "min": -0.3126341700553894,
                "offset": -4,
                "scale": 0.07815854251384735
            },
            {
                "bitwidth": 3,
                "dtype": "int",
                "is_symmetric": "True",
                "max": 0.21028384566307068,
                "min": -0.28037846088409424,
                "offset": -4,
                "scale": 0.07009461522102356
            },
            {
                "bitwidth": 3,
                "dtype": "int",
                "is_symmetric": "True",
                "max": 0.19134266674518585,
                "min": -0.2551235556602478,
                "offset": -4,
                "scale": 0.06378088891506195
            },
            {
                "bitwidth": 3,
                "dtype": "int",
                "is_symmetric": "True",
                "max": 0.20262368023395538,
                "min": -0.2701649069786072,
                "offset": -4,
                "scale": 0.0675412267446518
            },
            {
                "bitwidth": 3,
                "dtype": "int",
                "is_symmetric": "True",
                "max": 0.23707666993141174,
                "min": -0.3161022365093231,
                "offset": -4,
                "scale": 0.07902555912733078
            },
            {
                "bitwidth": 3,
                "dtype": "int",
                "is_symmetric": "True",
                "max": 0.1930416226387024,
                "min": -0.2573888301849365,
                "offset": -4,
                "scale": 0.06434720754623413
            },
            {
                "bitwidth": 3,
                "dtype": "int",
                "is_symmetric": "True",
                "max": 0.2069871872663498,
                "min": -0.27598291635513306,
                "offset": -4,
                "scale": 0.06899572908878326
            },
            {
                "bitwidth": 3,
                "dtype": "int",
                "is_symmetric": "True",
                "max": 0.1953505128622055,
                "min": -0.2604673504829407,
                "offset": -4,
                "scale": 0.06511683762073517
            },
            {
                "bitwidth": 3,
                "dtype": "int",
                "is_symmetric": "True",
                "max": 0.18678775429725647,
                "min": -0.2490503489971161,
                "offset": -4,
                "scale": 0.06226258724927902
            },
            {
                "bitwidth": 3,
                "dtype": "int",
                "is_symmetric": "True",
                "max": 0.18280857801437378,
                "min": -0.24374476075172424,
                "offset": -4,
                "scale": 0.06093619018793106
            },
            {
                "bitwidth": 3,
                "dtype": "int",
                "is_symmetric": "True",
                "max": 0.20926912128925323,
                "min": -0.27902549505233765,
                "offset": -4,
                "scale": 0.06975637376308441
            },
            {
                "bitwidth": 3,
                "dtype": "int",
                "is_symmetric": "True",
                "max": 0.19200670719146729,
                "min": -0.25600895285606384,
                "offset": -4,
                "scale": 0.06400223821401596
            },
            {
                "bitwidth": 3,
                "dtype": "int",
                "is_symmetric": "True",
                "max": 0.23002423346042633,
                "min": -0.3066989779472351,
                "offset": -4,
                "scale": 0.07667474448680878
            },
            {
                "bitwidth": 3,
                "dtype": "int",
                "is_symmetric": "True",
                "max": 0.1952812373638153,
                "min": -0.2603749930858612,
                "offset": -4,
                "scale": 0.0650937482714653
            },
            {
                "bitwidth": 3,
                "dtype": "int",
                "is_symmetric": "True",
                "max": 0.2170400172472,
                "min": -0.28938668966293335,
                "offset": -4,
                "scale": 0.07234667241573334
            },
            {
                "bitwidth": 3,
                "dtype": "int",
                "is_symmetric": "True",
                "max": 0.1960528939962387,
                "min": -0.2614038586616516,
                "offset": -4,
                "scale": 0.0653509646654129
            },
            {
                "bitwidth": 3,
                "dtype": "int",
                "is_symmetric": "True",
                "max": 0.21152427792549133,
                "min": -0.2820323705673218,
                "offset": -4,
                "scale": 0.07050809264183044
            },
            {
                "bitwidth": 3,
                "dtype": "int",
                "is_symmetric": "True",
                "max": 0.1867331564426422,
                "min": -0.24897754192352295,
                "offset": -4,
                "scale": 0.06224438548088074
            },
            {
                "bitwidth": 3,
                "dtype": "int",
                "is_symmetric": "True",
                "max": 0.1909840703010559,
                "min": -0.254645437002182,
                "offset": -4,
                "scale": 0.0636613592505455
            },
            {
                "bitwidth": 3,
                "dtype": "int",
                "is_symmetric": "True",
                "max": 0.21335001289844513,
                "min": -0.2844666838645935,
                "offset": -4,
                "scale": 0.07111667096614838
            },
            {
                "bitwidth": 3,
                "dtype": "int",
                "is_symmetric": "True",
                "max": 0.1962950974702835,
                "min": -0.2617267966270447,
                "offset": -4,
                "scale": 0.06543169915676117
            },
            {
                "bitwidth": 3,
                "dtype": "int",
                "is_symmetric": "True",
                "max": 0.23142443597316742,
                "min": -0.3085659146308899,
                "offset": -4,
                "scale": 0.07714147865772247
            },
            {
                "bitwidth": 3,
                "dtype": "int",
                "is_symmetric": "True",
                "max": 0.200445294380188,
                "min": -0.2672604024410248,
                "offset": -4,
                "scale": 0.0668151006102562
            },
            {
                "bitwidth": 3,
                "dtype": "int",
                "is_symmetric": "True",
                "max": 0.2070700228214264,
                "min": -0.27609336376190186,
                "offset": -4,
                "scale": 0.06902334094047546
            },
            {
                "bitwidth": 3,
                "dtype": "int",
                "is_symmetric": "True",
                "max": 0.21108372509479523,
                "min": -0.2814449667930603,
                "offset": -4,
                "scale": 0.07036124169826508
            },
            {
                "bitwidth": 3,
                "dtype": "int",
                "is_symmetric": "True",
                "max": 0.20726604759693146,
                "min": -0.27635473012924194,
                "offset": -4,
                "scale": 0.06908868253231049
            },
            {
                "bitwidth": 3,
                "dtype": "int",
                "is_symmetric": "True",
                "max": 0.1930084079504013,
                "min": -0.2573445439338684,
                "offset": -4,
                "scale": 0.0643361359834671
            },
            {
                "bitwidth": 3,
                "dtype": "int",
                "is_symmetric": "True",
                "max": 0.1901388168334961,
                "min": -0.2535184323787689,
                "offset": -4,
                "scale": 0.06337960809469223
            },
            {
                "bitwidth": 3,
                "dtype": "int",
                "is_symmetric": "True",
                "max": 0.19807153940200806,
                "min": -0.26409539580345154,
                "offset": -4,
                "scale": 0.06602384895086288
            },
            {
                "bitwidth": 3,
                "dtype": "int",
                "is_symmetric": "True",
                "max": 0.228669673204422,
                "min": -0.304892897605896,
                "offset": -4,
                "scale": 0.076223224401474
            },
            {
                "bitwidth": 3,
                "dtype": "int",
                "is_symmetric": "True",
                "max": 0.18322166800498962,
                "min": -0.24429556727409363,
                "offset": -4,
                "scale": 0.06107389181852341
            },
            {
                "bitwidth": 3,
                "dtype": "int",
                "is_symmetric": "True",
                "max": 0.23571956157684326,
                "min": -0.3142927587032318,
                "offset": -4,
                "scale": 0.07857318967580795
            },
            {
                "bitwidth": 3,
                "dtype": "int",
                "is_symmetric": "True",
                "max": 0.21293695271015167,
                "min": -0.2839159369468689,
                "offset": -4,
                "scale": 0.07097898423671722
            },
            {
                "bitwidth": 3,
                "dtype": "int",
                "is_symmetric": "True",
                "max": 0.2431655377149582,
                "min": -0.3242207169532776,
                "offset": -4,
                "scale": 0.0810551792383194
            },
            {
                "bitwidth": 3,
                "dtype": "int",
                "is_symmetric": "True",
                "max": 0.1692456603050232,
                "min": -0.22566087543964386,
                "offset": -4,
                "scale": 0.056415218859910965
            },
            {
                "bitwidth": 3,
                "dtype": "int",
                "is_symmetric": "True",
                "max": 0.21884174644947052,
                "min": -0.2917889952659607,
                "offset": -4,
                "scale": 0.07294724881649017
            },
            {
                "bitwidth": 3,
                "dtype": "int",
                "is_symmetric": "True",
                "max": 0.21256664395332336,
                "min": -0.28342220187187195,
                "offset": -4,
                "scale": 0.07085555046796799
            },
            {
                "bitwidth": 3,
                "dtype": "int",
                "is_symmetric": "True",
                "max": 0.22577954828739166,
                "min": -0.3010393977165222,
                "offset": -4,
                "scale": 0.07525984942913055
            },
            {
                "bitwidth": 3,
                "dtype": "int",
                "is_symmetric": "True",
                "max": 0.211389422416687,
                "min": -0.2818525731563568,
                "offset": -4,
                "scale": 0.0704631432890892
            },
            {
                "bitwidth": 3,
                "dtype": "int",
                "is_symmetric": "True",
                "max": 0.20965063571929932,
                "min": -0.2795341908931732,
                "offset": -4,
                "scale": 0.0698835477232933
            },
            {
                "bitwidth": 3,
                "dtype": "int",
                "is_symmetric": "True",
                "max": 0.21544629335403442,
                "min": -0.2872617244720459,
                "offset": -4,
                "scale": 0.07181543111801147
            },
            {
                "bitwidth": 3,
                "dtype": "int",
                "is_symmetric": "True",
                "max": 0.2085627317428589,
                "min": -0.2780836522579193,
                "offset": -4,
                "scale": 0.06952091306447983
            },
            {
                "bitwidth": 3,
                "dtype": "int",
                "is_symmetric": "True",
                "max": 0.22878125309944153,
                "min": -0.30504167079925537,
                "offset": -4,
                "scale": 0.07626041769981384
            },
            {
                "bitwidth": 3,
                "dtype": "int",
                "is_symmetric": "True",
                "max": 0.20647618174552917,
                "min": -0.27530157566070557,
                "offset": -4,
                "scale": 0.06882539391517639
            },
            {
                "bitwidth": 3,
                "dtype": "int",
                "is_symmetric": "True",
                "max": 0.21191924810409546,
                "min": -0.28255900740623474,
                "offset": -4,
                "scale": 0.07063975185155869
            },
            {
                "bitwidth": 3,
                "dtype": "int",
                "is_symmetric": "True",
                "max": 0.17749744653701782,
                "min": -0.23666325211524963,
                "offset": -4,
                "scale": 0.05916581302881241
            },
            {
                "bitwidth": 3,
                "dtype": "int",
                "is_symmetric": "True",
                "max": 0.17565540969371796,
                "min": -0.23420721292495728,
                "offset": -4,
                "scale": 0.05855180323123932
            },
            {
                "bitwidth": 3,
                "dtype": "int",
                "is_symmetric": "True",
                "max": 0.19111058115959167,
                "min": -0.25481411814689636,
                "offset": -4,
                "scale": 0.06370352953672409
            },
            {
                "bitwidth": 3,
                "dtype": "int",
                "is_symmetric": "True",
                "max": 0.18823856115341187,
                "min": -0.2509847581386566,
                "offset": -4,
                "scale": 0.06274618953466415
            },
            {
                "bitwidth": 3,
                "dtype": "int",
                "is_symmetric": "True",
                "max": 0.21443165838718414,
                "min": -0.28590887784957886,
                "offset": -4,
                "scale": 0.07147721946239471
            },
            {
                "bitwidth": 3,
                "dtype": "int",
                "is_symmetric": "True",
                "max": 0.1890864372253418,
                "min": -0.25211524963378906,
                "offset": -4,
                "scale": 0.06302881240844727
            },
            {
                "bitwidth": 3,
                "dtype": "int",
                "is_symmetric": "True",
                "max": 0.21923315525054932,
                "min": -0.2923108637332916,
                "offset": -4,
                "scale": 0.0730777159333229
            },
            {
                "bitwidth": 3,
                "dtype": "int",
                "is_symmetric": "True",
                "max": 0.2212838977575302,
                "min": -0.2950451970100403,
                "offset": -4,
                "scale": 0.07376129925251007
            },
            {
                "bitwidth": 3,
                "dtype": "int",
                "is_symmetric": "True",
                "max": 0.2026219367980957,
                "min": -0.27016258239746094,
                "offset": -4,
                "scale": 0.06754064559936523
            },
            {
                "bitwidth": 3,
                "dtype": "int",
                "is_symmetric": "True",
                "max": 0.20768457651138306,
                "min": -0.27691277861595154,
                "offset": -4,
                "scale": 0.06922819465398788
            },
            {
                "bitwidth": 3,
                "dtype": "int",
                "is_symmetric": "True",
                "max": 0.1861879825592041,
                "min": -0.24825064837932587,
                "offset": -4,
                "scale": 0.06206266209483147
            },
            {
                "bitwidth": 3,
                "dtype": "int",
                "is_symmetric": "True",
                "max": 0.20187589526176453,
                "min": -0.26916787028312683,
                "offset": -4,
                "scale": 0.06729196757078171
            },
            {
                "bitwidth": 3,
                "dtype": "int",
                "is_symmetric": "True",
                "max": 0.2071893811225891,
                "min": -0.27625250816345215,
                "offset": -4,
                "scale": 0.06906312704086304
            },
            {
                "bitwidth": 3,
                "dtype": "int",
                "is_symmetric": "True",
                "max": 0.18734107911586761,
                "min": -0.2497881054878235,
                "offset": -4,
                "scale": 0.06244702637195587
            },
            {
                "bitwidth": 3,
                "dtype": "int",
                "is_symmetric": "True",
                "max": 0.23060253262519836,
                "min": -0.30747005343437195,
                "offset": -4,
                "scale": 0.07686751335859299
            },
            {
                "bitwidth": 3,
                "dtype": "int",
                "is_symmetric": "True",
                "max": 0.2094091773033142,
                "min": -0.27921223640441895,
                "offset": -4,
                "scale": 0.06980305910110474
            },
            {
                "bitwidth": 3,
                "dtype": "int",
                "is_symmetric": "True",
                "max": 0.2229709029197693,
                "min": -0.2972945272922516,
                "offset": -4,
                "scale": 0.0743236318230629
            },
            {
                "bitwidth": 3,
                "dtype": "int",
                "is_symmetric": "True",
                "max": 0.23260843753814697,
                "min": -0.3101445734500885,
                "offset": -4,
                "scale": 0.07753614336252213
            },
            {
                "bitwidth": 3,
                "dtype": "int",
                "is_symmetric": "True",
                "max": 0.22201497852802277,
                "min": -0.296019971370697,
                "offset": -4,
                "scale": 0.07400499284267426
            },
            {
                "bitwidth": 3,
                "dtype": "int",
                "is_symmetric": "True",
                "max": 0.2287348508834839,
                "min": -0.3049798011779785,
                "offset": -4,
                "scale": 0.07624495029449463
            },
            {
                "bitwidth": 3,
                "dtype": "int",
                "is_symmetric": "True",
                "max": 0.22649529576301575,
                "min": -0.301993727684021,
                "offset": -4,
                "scale": 0.07549843192100525
            },
            {
                "bitwidth": 3,
                "dtype": "int",
                "is_symmetric": "True",
                "max": 0.19576814770698547,
                "min": -0.26102420687675476,
                "offset": -4,
                "scale": 0.06525605171918869
            },
            {
                "bitwidth": 3,
                "dtype": "int",
                "is_symmetric": "True",
                "max": 0.20718272030353546,
                "min": -0.2762436270713806,
                "offset": -4,
                "scale": 0.06906090676784515
            },
            {
                "bitwidth": 3,
                "dtype": "int",
                "is_symmetric": "True",
                "max": 0.19147123396396637,
                "min": -0.2552949786186218,
                "offset": -4,
                "scale": 0.06382374465465546
            },
            {
                "bitwidth": 3,
                "dtype": "int",
                "is_symmetric": "True",
                "max": 0.195891335606575,
                "min": -0.26118844747543335,
                "offset": -4,
                "scale": 0.06529711186885834
            },
            {
                "bitwidth": 3,
                "dtype": "int",
                "is_symmetric": "True",
                "max": 0.2165716141462326,
                "min": -0.2887621521949768,
                "offset": -4,
                "scale": 0.0721905380487442
            },
            {
                "bitwidth": 3,
                "dtype": "int",
                "is_symmetric": "True",
                "max": 0.21586984395980835,
                "min": -0.28782644867897034,
                "offset": -4,
                "scale": 0.07195661216974258
            },
            {
                "bitwidth": 3,
                "dtype": "int",
                "is_symmetric": "True",
                "max": 0.20800259709358215,
                "min": -0.27733680605888367,
                "offset": -4,
                "scale": 0.06933420151472092
            },
            {
                "bitwidth": 3,
                "dtype": "int",
                "is_symmetric": "True",
                "max": 0.22669382393360138,
                "min": -0.3022584319114685,
                "offset": -4,
                "scale": 0.07556460797786713
            },
            {
                "bitwidth": 3,
                "dtype": "int",
                "is_symmetric": "True",
                "max": 0.21881988644599915,
                "min": -0.2917598485946655,
                "offset": -4,
                "scale": 0.07293996214866638
            },
            {
                "bitwidth": 3,
                "dtype": "int",
                "is_symmetric": "True",
                "max": 0.19546781480312347,
                "min": -0.2606237530708313,
                "offset": -4,
                "scale": 0.06515593826770782
            },
            {
                "bitwidth": 3,
                "dtype": "int",
                "is_symmetric": "True",
                "max": 0.21411381661891937,
                "min": -0.28548508882522583,
                "offset": -4,
                "scale": 0.07137127220630646
            },
            {
                "bitwidth": 3,
                "dtype": "int",
                "is_symmetric": "True",
                "max": 0.21988020837306976,
                "min": -0.293173611164093,
                "offset": -4,
                "scale": 0.07329340279102325
            },
            {
                "bitwidth": 3,
                "dtype": "int",
                "is_symmetric": "True",
                "max": 0.19689396023750305,
                "min": -0.2625252902507782,
                "offset": -4,
                "scale": 0.06563132256269455
            },
            {
                "bitwidth": 3,
                "dtype": "int",
                "is_symmetric": "True",
                "max": 0.19890660047531128,
                "min": -0.26520881056785583,
                "offset": -4,
                "scale": 0.06630220264196396
            },
            {
                "bitwidth": 3,
                "dtype": "int",
                "is_symmetric": "True",
                "max": 0.18019819259643555,
                "min": -0.24026425182819366,
                "offset": -4,
                "scale": 0.060066062957048416
            },
            {
                "bitwidth": 3,
                "dtype": "int",
                "is_symmetric": "True",
                "max": 0.1945655345916748,
                "min": -0.2594207227230072,
                "offset": -4,
                "scale": 0.0648551806807518
            },
            {
                "bitwidth": 3,
                "dtype": "int",
                "is_symmetric": "True",
                "max": 0.19553613662719727,
                "min": -0.2607148587703705,
                "offset": -4,
                "scale": 0.06517871469259262
            },
            {
                "bitwidth": 3,
                "dtype": "int",
                "is_symmetric": "True",
                "max": 0.20881471037864685,
                "min": -0.2784196138381958,
                "offset": -4,
                "scale": 0.06960490345954895
            },
            {
                "bitwidth": 3,
                "dtype": "int",
                "is_symmetric": "True",
                "max": 0.22891724109649658,
                "min": -0.3052229881286621,
                "offset": -4,
                "scale": 0.07630574703216553
            },
            {
                "bitwidth": 3,
                "dtype": "int",
                "is_symmetric": "True",
                "max": 0.19679337739944458,
                "min": -0.26239117980003357,
                "offset": -4,
                "scale": 0.06559779495000839
            },
            {
                "bitwidth": 3,
                "dtype": "int",
                "is_symmetric": "True",
                "max": 0.17508211731910706,
                "min": -0.23344282805919647,
                "offset": -4,
                "scale": 0.05836070701479912
            },
            {
                "bitwidth": 3,
                "dtype": "int",
                "is_symmetric": "True",
                "max": 0.20889808237552643,
                "min": -0.2785307765007019,
                "offset": -4,
                "scale": 0.06963269412517548
            },
            {
                "bitwidth": 3,
                "dtype": "int",
                "is_symmetric": "True",
                "max": 0.20238089561462402,
                "min": -0.26984119415283203,
                "offset": -4,
                "scale": 0.06746029853820801
            },
            {
                "bitwidth": 3,
                "dtype": "int",
                "is_symmetric": "True",
                "max": 0.21645021438598633,
                "min": -0.28860029578208923,
                "offset": -4,
                "scale": 0.07215007394552231
            },
            {
                "bitwidth": 3,
                "dtype": "int",
                "is_symmetric": "True",
                "max": 0.22271165251731873,
                "min": -0.2969488799571991,
                "offset": -4,
                "scale": 0.07423721998929977
            },
            {
                "bitwidth": 3,
                "dtype": "int",
                "is_symmetric": "True",
                "max": 0.21326319873332977,
                "min": -0.2843509316444397,
                "offset": -4,
                "scale": 0.07108773291110992
            },
            {
                "bitwidth": 3,
                "dtype": "int",
                "is_symmetric": "True",
                "max": 0.18172550201416016,
                "min": -0.24230065941810608,
                "offset": -4,
                "scale": 0.06057516485452652
            },
            {
                "bitwidth": 3,
                "dtype": "int",
                "is_symmetric": "True",
                "max": 0.19071945548057556,
                "min": -0.2542926073074341,
                "offset": -4,
                "scale": 0.06357315182685852
            },
            {
                "bitwidth": 3,
                "dtype": "int",
                "is_symmetric": "True",
                "max": 0.2084953933954239,
                "min": -0.2779938578605652,
                "offset": -4,
                "scale": 0.0694984644651413
            },
            {
                "bitwidth": 3,
                "dtype": "int",
                "is_symmetric": "True",
                "max": 0.16984844207763672,
                "min": -0.22646458446979523,
                "offset": -4,
                "scale": 0.05661614611744881
            },
            {
                "bitwidth": 3,
                "dtype": "int",
                "is_symmetric": "True",
                "max": 0.199228897690773,
                "min": -0.265638530254364,
                "offset": -4,
                "scale": 0.066409632563591
            },
            {
                "bitwidth": 3,
                "dtype": "int",
