{
    "param_encodings": {
        "conv1.weight": [
            {
                "bitwidth": 4,
                "dtype": "int",
                "is_symmetric": "True",
                "max": 0.16745753586292267,
                "min": -0.19138003885746002,
                "offset": -8,
                "scale": 0.023922504857182503
            },
            {
                "bitwidth": 4,
                "dtype": "int",
                "is_symmetric": "True",
                "max": 0.03696505352854729,
                "min": -0.0422457754611969,
                "offset": -8,
                "scale": 0.005280721932649612
            },
            {
                "bitwidth": 4,
                "dtype": "int",
                "is_symmetric": "True",
                "max": 8.344650268554688e-07,
                "min": -9.5367431640625e-07,
                "offset": -8,
                "scale": 1.1920928955078125e-07
            },
            {
                "bitwidth": 4,
                "dtype": "int",
                "is_symmetric": "True",
                "max": 0.04033404216170311,
                "min": -0.04609604924917221,
                "offset": -8,
                "scale": 0.005762006156146526
            },
            {
                "bitwidth": 4,
                "dtype": "int",
                "is_symmetric": "True",
                "max": 8.344650268554688e-07,
                "min": -9.5367431640625e-07,
                "offset": -8,
                "scale": 1.1920928955078125e-07
            },
            {
                "bitwidth": 4,
                "dtype": "int",
                "is_symmetric": "True",
                "max": 0.10609675943851471,
                "min": -0.12125343829393387,
                "offset": -8,
                "scale": 0.015156679786741734
            },
            {
                "bitwidth": 4,
                "dtype": "int",
                "is_symmetric": "True",
                "max": 0.09684212505817413,
                "min": -0.11067671328783035,
                "offset": -8,
                "scale": 0.013834589160978794
            },
            {
                "bitwidth": 4,
                "dtype": "int",
                "is_symmetric": "True",
                "max": 8.344650268554688e-07,
                "min": -9.5367431640625e-07,
                "offset": -8,
                "scale": 1.1920928955078125e-07
            },
            {
                "bitwidth": 4,
                "dtype": "int",
                "is_symmetric": "True",
                "max": 0.18520908057689667,
                "min": -0.2116675227880478,
                "offset": -8,
                "scale": 0.026458440348505974
            },
            {
                "bitwidth": 4,
                "dtype": "int",
                "is_symmetric": "True",
                "max": 8.344650268554688e-07,
                "min": -9.5367431640625e-07,
                "offset": -8,
                "scale": 1.1920928955078125e-07
            },
            {
                "bitwidth": 4,
                "dtype": "int",
                "is_symmetric": "True",
                "max": 0.08778266608715057,
                "min": -0.10032304376363754,
                "offset": -8,
                "scale": 0.012540380470454693
            },
            {
                "bitwidth": 4,
                "dtype": "int",
                "is_symmetric": "True",
                "max": 0.07114150375127792,
                "min": -0.08130457252264023,
                "offset": -8,
                "scale": 0.010163071565330029
            },
            {
                "bitwidth": 4,
                "dtype": "int",
                "is_symmetric": "True",
                "max": 0.03063874877989292,
                "min": -0.035015713423490524,
                "offset": -8,
                "scale": 0.0043769641779363155
            },
            {
                "bitwidth": 4,
                "dtype": "int",
                "is_symmetric": "True",
                "max": 8.344650268554688e-07,
                "min": -9.5367431640625e-07,
                "offset": -8,
                "scale": 1.1920928955078125e-07
            },
            {
                "bitwidth": 4,
                "dtype": "int",
                "is_symmetric": "True",
                "max": 0.020432304590940475,
                "min": -0.02335120551288128,
                "offset": -8,
                "scale": 0.00291890068911016
            },
            {
                "bitwidth": 4,
                "dtype": "int",
                "is_symmetric": "True",
                "max": 0.17299969494342804,
                "min": -0.1977139413356781,
                "offset": -8,
                "scale": 0.024714242666959763
            },
            {
                "bitwidth": 4,
                "dtype": "int",
                "is_symmetric": "True",
                "max": 0.031821150332689285,
                "min": -0.0363670289516449,
                "offset": -8,
                "scale": 0.004545878618955612
            },
            {
                "bitwidth": 4,
                "dtype": "int",
                "is_symmetric": "True",
                "max": 0.012722337618470192,
                "min": -0.014539814554154873,
                "offset": -8,
                "scale": 0.0018174768192693591
            },
            {
                "bitwidth": 4,
                "dtype": "int",
                "is_symmetric": "True",
                "max": 0.07380419969558716,
                "min": -0.08434765785932541,
                "offset": -8,
                "scale": 0.010543457232415676
            },
            {
                "bitwidth": 4,
                "dtype": "int",
                "is_symmetric": "True",
                "max": 0.01825758069753647,
                "min": -0.020865807309746742,
                "offset": -8,
                "scale": 0.0026082259137183428
            },
            {
                "bitwidth": 4,
                "dtype": "int",
                "is_symmetric": "True",
                "max": 0.04951110854744911,
                "min": -0.05658412352204323,
                "offset": -8,
                "scale": 0.0070730154402554035
            },
            {
                "bitwidth": 4,
                "dtype": "int",
                "is_symmetric": "True",
                "max": 0.010071485303342342,
                "min": -0.011510268785059452,
                "offset": -8,
                "scale": 0.0014387835981324315
            },
            {
                "bitwidth": 4,
                "dtype": "int",
                "is_symmetric": "True",
                "max": 0.026604454964399338,
                "min": -0.030405091121792793,
                "offset": -8,
                "scale": 0.003800636390224099
            },
            {
                "bitwidth": 4,
                "dtype": "int",
                "is_symmetric": "True",
                "max": 0.18241849541664124,
                "min": -0.20847828686237335,
                "offset": -8,
                "scale": 0.02605978585779667
            },
            {
                "bitwidth": 4,
                "dtype": "int",
                "is_symmetric": "True",
                "max": 0.3712932765483856,
                "min": -0.42433518171310425,
                "offset": -8,
                "scale": 0.05304189771413803
            },
            {
                "bitwidth": 4,
                "dtype": "int",
                "is_symmetric": "True",
                "max": 0.0295095331966877,
                "min": -0.033725179731845856,
                "offset": -8,
                "scale": 0.004215647466480732
            },
            {
                "bitwidth": 4,
                "dtype": "int",
                "is_symmetric": "True",
                "max": 0.020270731300115585,
                "min": -0.02316655032336712,
                "offset": -8,
                "scale": 0.00289581879042089
            },
            {
                "bitwidth": 4,
                "dtype": "int",
                "is_symmetric": "True",
                "max": 0.028228970244526863,
                "min": -0.0322616808116436,
                "offset": -8,
                "scale": 0.00403271010145545
            },
            {
                "bitwidth": 4,
                "dtype": "int",
                "is_symmetric": "True",
                "max": 0.07259581238031387,
                "min": -0.0829666405916214,
                "offset": -8,
                "scale": 0.010370830073952675
            },
            {
                "bitwidth": 4,
                "dtype": "int",
                "is_symmetric": "True",
                "max": 0.08937933295965195,
                "min": -0.10214781016111374,
                "offset": -8,
                "scale": 0.012768476270139217
            },
            {
                "bitwidth": 4,
                "dtype": "int",
                "is_symmetric": "True",
                "max": 0.12677446007728577,
                "min": -0.1448850929737091,
                "offset": -8,
                "scale": 0.01811063662171364
            },
            {
                "bitwidth": 4,
                "dtype": "int",
                "is_symmetric": "True",
                "max": 0.05644095316529274,
                "min": -0.06450394541025162,
                "offset": -8,
                "scale": 0.008062993176281452
            },
            {
                "bitwidth": 4,
                "dtype": "int",
                "is_symmetric": "True",
                "max": 0.0338745079934597,
                "min": -0.0387137234210968,
                "offset": -8,
                "scale": 0.0048392154276371
            },
            {
                "bitwidth": 4,
                "dtype": "int",
                "is_symmetric": "True",
                "max": 0.08085767924785614,
                "min": -0.09240877628326416,
                "offset": -8,
                "scale": 0.01155109703540802
            },
            {
                "bitwidth": 4,
                "dtype": "int",
                "is_symmetric": "True",
                "max": 0.045453742146492004,
                "min": -0.05194713547825813,
                "offset": -8,
                "scale": 0.006493391934782267
            },
            {
                "bitwidth": 4,
                "dtype": "int",
                "is_symmetric": "True",
                "max": 0.030141156166791916,
                "min": -0.03444703668355942,
                "offset": -8,
                "scale": 0.004305879585444927
            },
            {
                "bitwidth": 4,
                "dtype": "int",
                "is_symmetric": "True",
                "max": 8.344650268554688e-07,
                "min": -9.5367431640625e-07,
                "offset": -8,
                "scale": 1.1920928955078125e-07
            },
            {
                "bitwidth": 4,
                "dtype": "int",
                "is_symmetric": "True",
                "max": 0.03525613620877266,
                "min": -0.04029272869229317,
                "offset": -8,
                "scale": 0.005036591086536646
            },
            {
                "bitwidth": 4,
                "dtype": "int",
                "is_symmetric": "True",
                "max": 8.344650268554688e-07,
                "min": -9.5367431640625e-07,
                "offset": -8,
                "scale": 1.1920928955078125e-07
            },
            {
                "bitwidth": 4,
                "dtype": "int",
                "is_symmetric": "True",
                "max": 0.34516486525535583,
                "min": -0.3944741189479828,
                "offset": -8,
                "scale": 0.04930926486849785
            },
            {
                "bitwidth": 4,
                "dtype": "int",
                "is_symmetric": "True",
                "max": 0.2531683146953583,
                "min": -0.2893352210521698,
                "offset": -8,
                "scale": 0.036166902631521225
            },
            {
                "bitwidth": 4,
                "dtype": "int",
                "is_symmetric": "True",
                "max": 0.14123032987117767,
                "min": -0.16140608489513397,
                "offset": -8,
                "scale": 0.020175760611891747
            },
            {
                "bitwidth": 4,
                "dtype": "int",
                "is_symmetric": "True",
                "max": 0.12053798884153366,
                "min": -0.13775770366191864,
                "offset": -8,
                "scale": 0.01721971295773983
            },
            {
                "bitwidth": 4,
                "dtype": "int",
                "is_symmetric": "True",
                "max": 0.07411910593509674,
                "min": -0.08470755070447922,
                "offset": -8,
                "scale": 0.010588443838059902
            },
            {
                "bitwidth": 4,
                "dtype": "int",
                "is_symmetric": "True",
                "max": 0.09598906338214874,
                "min": -0.10970178991556168,
                "offset": -8,
                "scale": 0.01371272373944521
            },
            {
                "bitwidth": 4,
                "dtype": "int",
                "is_symmetric": "True",
                "max": 0.031424883753061295,
                "min": -0.03591415286064148,
                "offset": -8,
                "scale": 0.004489269107580185
            },
            {
                "bitwidth": 4,
                "dtype": "int",
                "is_symmetric": "True",
                "max": 0.013915356248617172,
                "min": -0.01590326428413391,
                "offset": -8,
                "scale": 0.001987908035516739
            },
            {
                "bitwidth": 4,
                "dtype": "int",
                "is_symmetric": "True",
                "max": 0.2035721391439438,
                "min": -0.23265387117862701,
                "offset": -8,
                "scale": 0.029081733897328377
            },
            {
                "bitwidth": 4,
                "dtype": "int",
                "is_symmetric": "True",
                "max": 8.344650268554688e-07,
                "min": -9.5367431640625e-07,
                "offset": -8,
                "scale": 1.1920928955078125e-07
            },
            {
                "bitwidth": 4,
                "dtype": "int",
                "is_symmetric": "True",
                "max": 0.1322353631258011,
                "min": -0.15112613141536713,
                "offset": -8,
                "scale": 0.01889076642692089
            },
            {
                "bitwidth": 4,
                "dtype": "int",
                "is_symmetric": "True",
                "max": 0.2561286985874176,
                "min": -0.2927184998989105,
                "offset": -8,
                "scale": 0.036589812487363815
            },
            {
                "bitwidth": 4,
                "dtype": "int",
                "is_symmetric": "True",
                "max": 0.11569119989871979,
                "min": -0.13221850991249084,
                "offset": -8,
                "scale": 0.016527313739061356
            },
            {
                "bitwidth": 4,
                "dtype": "int",
                "is_symmetric": "True",
                "max": 0.05443867668509483,
                "min": -0.06221562996506691,
                "offset": -8,
                "scale": 0.007776953745633364
            },
            {
                "bitwidth": 4,
                "dtype": "int",
                "is_symmetric": "True",
                "max": 0.2516736090183258,
                "min": -0.2876269817352295,
                "offset": -8,
                "scale": 0.035953372716903687
            },
            {
                "bitwidth": 4,
                "dtype": "int",
                "is_symmetric": "True",
                "max": 0.010477527044713497,
                "min": -0.011974317021667957,
                "offset": -8,
                "scale": 0.0014967896277084947
            },
            {
                "bitwidth": 4,
                "dtype": "int",
                "is_symmetric": "True",
                "max": 0.17817427217960358,
                "min": -0.20362773537635803,
                "offset": -8,
                "scale": 0.025453466922044754
            },
            {
                "bitwidth": 4,
                "dtype": "int",
                "is_symmetric": "True",
                "max": 0.04464270547032356,
                "min": -0.05102023482322693,
                "offset": -8,
                "scale": 0.006377529352903366
            },
            {
                "bitwidth": 4,
                "dtype": "int",
                "is_symmetric": "True",
                "max": 0.02154979668557644,
                "min": -0.02462833933532238,
                "offset": -8,
                "scale": 0.0030785424169152975
            },
            {
                "bitwidth": 4,
                "dtype": "int",
                "is_symmetric": "True",
                "max": 0.05149556323885918,
                "min": -0.058852072805166245,
                "offset": -8,
                "scale": 0.0073565091006457806
            },
            {
                "bitwidth": 4,
                "dtype": "int",
                "is_symmetric": "True",
                "max": 0.14901356399059296,
                "min": -0.17030121386051178,
                "offset": -8,
                "scale": 0.021287651732563972
            },
            {
                "bitwidth": 4,
                "dtype": "int",
                "is_symmetric": "True",
                "max": 0.1078021451830864,
                "min": -0.12320245057344437,
                "offset": -8,
                "scale": 0.015400306321680546
            },
            {
                "bitwidth": 4,
                "dtype": "int",
                "is_symmetric": "True",
                "max": 0.008336649276316166,
                "min": -0.009527599439024925,
                "offset": -8,
                "scale": 0.0011909499298781157
            },
            {
                "bitwidth": 4,
                "dtype": "int",
                "is_symmetric": "True",
                "max": 0.02979924902319908,
                "min": -0.03405628353357315,
                "offset": -8,
                "scale": 0.004257035441696644
            },
            {
                "bitwidth": 4,
                "dtype": "int",
                "is_symmetric": "True",
                "max": 0.10461652278900146,
                "min": -0.11956173926591873,
                "offset": -8,
                "scale": 0.014945217408239841
            }
        ],
        "fc.weight": [
            {
                "bitwidth": 4,
                "dtype": "int",
                "is_symmetric": "True",
                "max": 0.24529294669628143,
                "min": -0.28033480048179626,
                "offset": -8,
                "scale": 0.03504185006022453
            },
            {
                "bitwidth": 4,
                "dtype": "int",
                "is_symmetric": "True",
                "max": 0.29034775495529175,
                "min": -0.33182600140571594,
                "offset": -8,
                "scale": 0.04147825017571449
            },
            {
                "bitwidth": 4,
                "dtype": "int",
                "is_symmetric": "True",
                "max": 0.2745380997657776,
                "min": -0.31375783681869507,
                "offset": -8,
                "scale": 0.039219729602336884
            },
            {
                "bitwidth": 4,
                "dtype": "int",
                "is_symmetric": "True",
                "max": 0.2613271474838257,
                "min": -0.2986595928668976,
                "offset": -8,
                "scale": 0.0373324491083622
            },
            {
                "bitwidth": 4,
                "dtype": "int",
                "is_symmetric": "True",
                "max": 0.24858762323856354,
                "min": -0.28410014510154724,
                "offset": -8,
                "scale": 0.035512518137693405
            },
            {
                "bitwidth": 4,
                "dtype": "int",
                "is_symmetric": "True",
                "max": 0.2735757827758789,
                "min": -0.31265804171562195,
                "offset": -8,
                "scale": 0.039082255214452744
            },
            {
                "bitwidth": 4,
                "dtype": "int",
                "is_symmetric": "True",
                "max": 0.28709691762924194,
                "min": -0.3281107544898987,
                "offset": -8,
                "scale": 0.041013844311237335
            },
            {
                "bitwidth": 4,
                "dtype": "int",
                "is_symmetric": "True",
                "max": 0.3685794174671173,
                "min": -0.4212336242198944,
                "offset": -8,
                "scale": 0.0526542030274868
            },
            {
                "bitwidth": 4,
                "dtype": "int",
                "is_symmetric": "True",
                "max": 0.3712306618690491,
                "min": -0.424263596534729,
                "offset": -8,
                "scale": 0.053032949566841125
            },
            {
                "bitwidth": 4,
                "dtype": "int",
                "is_symmetric": "True",
                "max": 0.32535356283187866,
                "min": -0.37183263897895813,
                "offset": -8,
                "scale": 0.046479079872369766
            },
            {
                "bitwidth": 4,
                "dtype": "int",
                "is_symmetric": "True",
                "max": 0.27809369564056396,
                "min": -0.31782135367393494,
                "offset": -8,
                "scale": 0.03972766920924187
            },
            {
                "bitwidth": 4,
                "dtype": "int",
                "is_symmetric": "True",
                "max": 0.33637675642967224,
                "min": -0.38443058729171753,
                "offset": -8,
                "scale": 0.04805382341146469
            },
            {
                "bitwidth": 4,
                "dtype": "int",
                "is_symmetric": "True",
                "max": 0.3221558630466461,
                "min": -0.368178129196167,
                "offset": -8,
                "scale": 0.046022266149520874
            },
            {
                "bitwidth": 4,
                "dtype": "int",
                "is_symmetric": "True",
                "max": 0.2948897182941437,
                "min": -0.3370168209075928,
                "offset": -8,
                "scale": 0.0421271026134491
            },
            {
                "bitwidth": 4,
                "dtype": "int",
                "is_symmetric": "True",
                "max": 0.341800332069397,
                "min": -0.39062896370887756,
                "offset": -8,
                "scale": 0.048828620463609695
            },
            {
                "bitwidth": 4,
                "dtype": "int",
                "is_symmetric": "True",
                "max": 0.24799682199954987,
                "min": -0.2834249436855316,
                "offset": -8,
                "scale": 0.03542811796069145
            },
            {
                "bitwidth": 4,
                "dtype": "int",
                "is_symmetric": "True",
                "max": 0.23775215446949005,
                "min": -0.27171674370765686,
                "offset": -8,
                "scale": 0.03396459296345711
            },
            {
                "bitwidth": 4,
                "dtype": "int",
                "is_symmetric": "True",
                "max": 0.3766672909259796,
                "min": -0.4304769039154053,
                "offset": -8,
                "scale": 0.05380961298942566
            },
            {
                "bitwidth": 4,
                "dtype": "int",
                "is_symmetric": "True",
                "max": 0.24900193512439728,
                "min": -0.28457364439964294,
                "offset": -8,
                "scale": 0.03557170554995537
            },
            {
                "bitwidth": 4,
                "dtype": "int",
                "is_symmetric": "True",
                "max": 0.28290855884552,
                "min": -0.3233240842819214,
                "offset": -8,
                "scale": 0.04041551053524017
            },
            {
                "bitwidth": 4,
                "dtype": "int",
                "is_symmetric": "True",
                "max": 0.30238163471221924,
                "min": -0.34557902812957764,
                "offset": -8,
                "scale": 0.043197378516197205
            },
            {
                "bitwidth": 4,
                "dtype": "int",
                "is_symmetric": "True",
                "max": 0.2566775679588318,
                "min": -0.2933458089828491,
                "offset": -8,
                "scale": 0.03666822612285614
            },
            {
                "bitwidth": 4,
                "dtype": "int",
                "is_symmetric": "True",
                "max": 0.3099821209907532,
                "min": -0.3542652726173401,
                "offset": -8,
                "scale": 0.04428315907716751
            },
            {
                "bitwidth": 4,
                "dtype": "int",
                "is_symmetric": "True",
                "max": 0.2785303592681885,
                "min": -0.3183204233646393,
                "offset": -8,
                "scale": 0.03979005292057991
            },
            {
                "bitwidth": 4,
                "dtype": "int",
                "is_symmetric": "True",
                "max": 0.26505640149116516,
                "min": -0.3029215931892395,
                "offset": -8,
                "scale": 0.03786519914865494
            },
            {
                "bitwidth": 4,
                "dtype": "int",
                "is_symmetric": "True",
                "max": 0.2890792489051819,
                "min": -0.3303762972354889,
                "offset": -8,
                "scale": 0.04129703715443611
            },
            {
                "bitwidth": 4,
                "dtype": "int",
                "is_symmetric": "True",
                "max": 0.2677972614765167,
                "min": -0.306054025888443,
                "offset": -8,
                "scale": 0.038256753236055374
            },
            {
                "bitwidth": 4,
                "dtype": "int",
                "is_symmetric": "True",
                "max": 0.2827110290527344,
                "min": -0.3230983316898346,
                "offset": -8,
                "scale": 0.040387291461229324
            },
            {
                "bitwidth": 4,
                "dtype": "int",
                "is_symmetric": "True",
                "max": 0.29584383964538574,
                "min": -0.33810725808143616,
                "offset": -8,
                "scale": 0.04226340726017952
            },
            {
                "bitwidth": 4,
                "dtype": "int",
                "is_symmetric": "True",
                "max": 0.3374837040901184,
                "min": -0.3856956660747528,
                "offset": -8,
                "scale": 0.0482119582593441
            },
            {
                "bitwidth": 4,
                "dtype": "int",
                "is_symmetric": "True",
                "max": 0.2608446478843689,
                "min": -0.29810816049575806,
                "offset": -8,
                "scale": 0.03726352006196976
            },
            {
                "bitwidth": 4,
                "dtype": "int",
                "is_symmetric": "True",
                "max": 0.276773601770401,
                "min": -0.316312700510025,
                "offset": -8,
                "scale": 0.03953908756375313
            },
            {
                "bitwidth": 4,
                "dtype": "int",
                "is_symmetric": "True",
                "max": 0.24562209844589233,
                "min": -0.28071096539497375,
                "offset": -8,
                "scale": 0.03508887067437172
            },
            {
                "bitwidth": 4,
                "dtype": "int",
                "is_symmetric": "True",
                "max": 0.30238109827041626,
                "min": -0.3455784022808075,
                "offset": -8,
                "scale": 0.04319730028510094
            },
            {
                "bitwidth": 4,
                "dtype": "int",
                "is_symmetric": "True",
                "max": 0.31428062915802,
                "min": -0.3591778576374054,
                "offset": -8,
                "scale": 0.044897232204675674
            },
            {
                "bitwidth": 4,
                "dtype": "int",
                "is_symmetric": "True",
                "max": 0.29545333981513977,
                "min": -0.3376609683036804,
                "offset": -8,
                "scale": 0.04220762103796005
            },
            {
                "bitwidth": 4,
                "dtype": "int",
                "is_symmetric": "True",
                "max": 0.27499979734420776,
                "min": -0.3142854869365692,
                "offset": -8,
                "scale": 0.03928568586707115
            },
            {
                "bitwidth": 4,
                "dtype": "int",
                "is_symmetric": "True",
                "max": 0.29837286472320557,
                "min": -0.3409975469112396,
                "offset": -8,
                "scale": 0.04262469336390495
            },
            {
                "bitwidth": 4,
                "dtype": "int",
                "is_symmetric": "True",
                "max": 0.2598339319229126,
                "min": -0.29695308208465576,
                "offset": -8,
                "scale": 0.03711913526058197
            },
            {
                "bitwidth": 4,
                "dtype": "int",
                "is_symmetric": "True",
                "max": 0.32647043466567993,
                "min": -0.3731090724468231,
                "offset": -8,
                "scale": 0.04663863405585289
            },
            {
                "bitwidth": 4,
                "dtype": "int",
                "is_symmetric": "True",
                "max": 0.29326826333999634,
                "min": -0.33516374230384827,
                "offset": -8,
                "scale": 0.04189546778798103
            },
            {
                "bitwidth": 4,
                "dtype": "int",
                "is_symmetric": "True",
                "max": 0.2727959156036377,
                "min": -0.31176677346229553,
                "offset": -8,
                "scale": 0.03897084668278694
            },
            {
                "bitwidth": 4,
                "dtype": "int",
                "is_symmetric": "True",
                "max": 0.27398771047592163,
                "min": -0.313128799200058,
                "offset": -8,
                "scale": 0.03914109990000725
            },
            {
                "bitwidth": 4,
                "dtype": "int",
                "is_symmetric": "True",
                "max": 0.3232504725456238,
                "min": -0.3694291114807129,
                "offset": -8,
                "scale": 0.04617863893508911
            },
            {
                "bitwidth": 4,
                "dtype": "int",
                "is_symmetric": "True",
                "max": 0.2803049683570862,
                "min": -0.3203485310077667,
                "offset": -8,
                "scale": 0.04004356637597084
            },
            {
                "bitwidth": 4,
                "dtype": "int",
                "is_symmetric": "True",
                "max": 0.3049895167350769,
                "min": -0.3485594391822815,
                "offset": -8,
                "scale": 0.04356992989778519
            },
            {
                "bitwidth": 4,
                "dtype": "int",
                "is_symmetric": "True",
                "max": 0.3234472870826721,
                "min": -0.3696540296077728,
                "offset": -8,
                "scale": 0.0462067537009716
            },
            {
                "bitwidth": 4,
                "dtype": "int",
                "is_symmetric": "True",
                "max": 0.25430747866630554,
                "min": -0.2906371057033539,
                "offset": -8,
                "scale": 0.036329638212919235
            },
            {
                "bitwidth": 4,
                "dtype": "int",
                "is_symmetric": "True",
                "max": 0.2634762227535248,
                "min": -0.3011156916618347,
                "offset": -8,
                "scale": 0.03763946145772934
            },
            {
                "bitwidth": 4,
                "dtype": "int",
                "is_symmetric": "True",
                "max": 0.33447936177253723,
                "min": -0.38226214051246643,
                "offset": -8,
                "scale": 0.047782767564058304
            },
            {
                "bitwidth": 4,
                "dtype": "int",
                "is_symmetric": "True",
                "max": 0.3358847200870514,
                "min": -0.3838682472705841,
                "offset": -8,
                "scale": 0.04798353090882301
            },
            {
                "bitwidth": 4,
                "dtype": "int",
                "is_symmetric": "True",
                "max": 0.4120180606842041,
                "min": -0.4708777666091919,
                "offset": -8,
                "scale": 0.05885972082614899
            },
            {
                "bitwidth": 4,
                "dtype": "int",
                "is_symmetric": "True",
                "max": 0.277333527803421,
                "min": -0.3169526159763336,
                "offset": -8,
                "scale": 0.0396190769970417
            },
            {
                "bitwidth": 4,
                "dtype": "int",
                "is_symmetric": "True",
                "max": 0.2979333698749542,
                "min": -0.3404952883720398,
                "offset": -8,
                "scale": 0.042561911046504974
            },
            {
                "bitwidth": 4,
                "dtype": "int",
                "is_symmetric": "True",
                "max": 0.2785000205039978,
                "min": -0.31828573346138,
                "offset": -8,
                "scale": 0.0397857166826725
            },
            {
                "bitwidth": 4,
                "dtype": "int",
                "is_symmetric": "True",
                "max": 0.28263792395591736,
                "min": -0.3230147659778595,
                "offset": -8,
                "scale": 0.04037684574723244
            },
            {
                "bitwidth": 4,
                "dtype": "int",
                "is_symmetric": "True",
                "max": 0.3380447328090668,
                "min": -0.3863368332386017,
                "offset": -8,
                "scale": 0.04829210415482521
            },
            {
                "bitwidth": 4,
                "dtype": "int",
                "is_symmetric": "True",
                "max": 0.3521873354911804,
                "min": -0.402499794960022,
                "offset": -8,
                "scale": 0.05031247437000275
            },
            {
                "bitwidth": 4,
                "dtype": "int",
                "is_symmetric": "True",
                "max": 0.293637752532959,
                "min": -0.3355860114097595,
                "offset": -8,
                "scale": 0.04194825142621994
            },
            {
                "bitwidth": 4,
                "dtype": "int",
                "is_symmetric": "True",
                "max": 0.281240850687027,
                "min": -0.3214181065559387,
                "offset": -8,
                "scale": 0.04017726331949234
            },
            {
                "bitwidth": 4,
                "dtype": "int",
                "is_symmetric": "True",
                "max": 0.3163689374923706,
                "min": -0.3615645170211792,
                "offset": -8,
                "scale": 0.0451955646276474
            },
            {
                "bitwidth": 4,
                "dtype": "int",
                "is_symmetric": "True",
                "max": 0.4610956311225891,
                "min": -0.5269664525985718,
                "offset": -8,
                "scale": 0.06587080657482147
            },
            {
                "bitwidth": 4,
                "dtype": "int",
                "is_symmetric": "True",
                "max": 0.3849881887435913,
                "min": -0.4399864971637726,
                "offset": -8,
                "scale": 0.05499831214547157
            },
            {
                "bitwidth": 4,
                "dtype": "int",
                "is_symmetric": "True",
                "max": 0.28677648305892944,
                "min": -0.3277445435523987,
                "offset": -8,
                "scale": 0.040968067944049835
            },
            {
                "bitwidth": 4,
                "dtype": "int",
                "is_symmetric": "True",
                "max": 0.38800743222236633,
                "min": -0.4434370696544647,
                "offset": -8,
                "scale": 0.05542963370680809
            },
            {
                "bitwidth": 4,
                "dtype": "int",
                "is_symmetric": "True",
                "max": 0.3076544404029846,
                "min": -0.351605087518692,
                "offset": -8,
                "scale": 0.0439506359398365
            },
            {
                "bitwidth": 4,
                "dtype": "int",
                "is_symmetric": "True",
                "max": 0.3343215584754944,
                "min": -0.3820817768573761,
                "offset": -8,
                "scale": 0.04776022210717201
            },
            {
                "bitwidth": 4,
                "dtype": "int",
                "is_symmetric": "True",
                "max": 0.30421391129493713,
                "min": -0.3476730287075043,
                "offset": -8,
                "scale": 0.043459128588438034
            },
            {
                "bitwidth": 4,
                "dtype": "int",
                "is_symmetric": "True",
                "max": 0.3186093866825104,
                "min": -0.36412501335144043,
                "offset": -8,
                "scale": 0.045515626668930054
            },
            {
                "bitwidth": 4,
                "dtype": "int",
                "is_symmetric": "True",
                "max": 0.33375319838523865,
                "min": -0.3814322352409363,
                "offset": -8,
                "scale": 0.047679029405117035
            },
            {
                "bitwidth": 4,
                "dtype": "int",
                "is_symmetric": "True",
                "max": 0.300966739654541,
                "min": -0.3439619839191437,
                "offset": -8,
                "scale": 0.04299524798989296
            },
            {
                "bitwidth": 4,
                "dtype": "int",
                "is_symmetric": "True",
                "max": 0.27704674005508423,
                "min": -0.31662485003471375,
                "offset": -8,
                "scale": 0.03957810625433922
            },
            {
                "bitwidth": 4,
                "dtype": "int",
                "is_symmetric": "True",
                "max": 0.4475109577178955,
                "min": -0.5114411115646362,
                "offset": -8,
                "scale": 0.06393013894557953
            },
            {
                "bitwidth": 4,
                "dtype": "int",
                "is_symmetric": "True",
                "max": 0.45146864652633667,
                "min": -0.515964150428772,
                "offset": -8,
                "scale": 0.0644955188035965
            },
            {
                "bitwidth": 4,
                "dtype": "int",
                "is_symmetric": "True",
                "max": 0.4818650186061859,
                "min": -0.5507028698921204,
                "offset": -8,
                "scale": 0.06883785873651505
            },
            {
                "bitwidth": 4,
                "dtype": "int",
                "is_symmetric": "True",
                "max": 0.3571566641330719,
                "min": -0.40817904472351074,
                "offset": -8,
                "scale": 0.05102238059043884
            },
            {
                "bitwidth": 4,
                "dtype": "int",
                "is_symmetric": "True",
                "max": 0.3247624337673187,
                "min": -0.37115707993507385,
                "offset": -8,
                "scale": 0.04639463499188423
            },
            {
                "bitwidth": 4,
                "dtype": "int",
                "is_symmetric": "True",
                "max": 0.23858502507209778,
                "min": -0.27266860008239746,
                "offset": -8,
                "scale": 0.03408357501029968
            },
            {
                "bitwidth": 4,
                "dtype": "int",
                "is_symmetric": "True",
                "max": 0.2971307337284088,
                "min": -0.33957797288894653,
                "offset": -8,
                "scale": 0.04244724661111832
            },
            {
                "bitwidth": 4,
                "dtype": "int",
                "is_symmetric": "True",
                "max": 0.34367600083351135,
                "min": -0.3927725851535797,
                "offset": -8,
                "scale": 0.049096573144197464
            },
            {
                "bitwidth": 4,
                "dtype": "int",
                "is_symmetric": "True",
                "max": 0.3155459463596344,
                "min": -0.36062392592430115,
                "offset": -8,
                "scale": 0.04507799074053764
            },
            {
                "bitwidth": 4,
                "dtype": "int",
                "is_symmetric": "True",
                "max": 0.3074324429035187,
                "min": -0.3513513505458832,
                "offset": -8,
                "scale": 0.0439189188182354
            },
            {
                "bitwidth": 4,
                "dtype": "int",
                "is_symmetric": "True",
                "max": 0.2777995765209198,
                "min": -0.3174852430820465,
                "offset": -8,
                "scale": 0.039685655385255814
            },
            {
                "bitwidth": 4,
                "dtype": "int",
                "is_symmetric": "True",
                "max": 0.27371305227279663,
                "min": -0.3128149211406708,
                "offset": -8,
                "scale": 0.03910186514258385
            },
            {
                "bitwidth": 4,
                "dtype": "int",
                "is_symmetric": "True",
                "max": 0.4674854576587677,
                "min": -0.5342690944671631,
                "offset": -8,
                "scale": 0.06678363680839539
            },
            {
                "bitwidth": 4,
                "dtype": "int",
                "is_symmetric": "True",
                "max": 0.2624402344226837,
                "min": -0.29993170499801636,
                "offset": -8,
                "scale": 0.037491463124752045
            },
            {
                "bitwidth": 4,
                "dtype": "int",
                "is_symmetric": "True",
                "max": 0.29605284333229065,
                "min": -0.33834609389305115,
                "offset": -8,
                "scale": 0.04229326173663139
            },
            {
                "bitwidth": 4,
                "dtype": "int",
                "is_symmetric": "True",
                "max": 0.3361051082611084,
                "min": -0.3841201364994049,
                "offset": -8,
                "scale": 0.04801501706242561
            },
            {
                "bitwidth": 4,
                "dtype": "int",
                "is_symmetric": "True",
                "max": 0.2375895380973816,
                "min": -0.2715308964252472,
                "offset": -8,
                "scale": 0.0339413620531559
            },
            {
                "bitwidth": 4,
                "dtype": "int",
                "is_symmetric": "True",
                "max": 0.3333970308303833,
                "min": -0.38102519512176514,
                "offset": -8,
                "scale": 0.04762814939022064
            },
            {
                "bitwidth": 4,
                "dtype": "int",
                "is_symmetric": "True",
                "max": 0.3093860447406769,
                "min": -0.35358405113220215,
                "offset": -8,
                "scale": 0.04419800639152527
            },
            {
                "bitwidth": 4,
                "dtype": "int",
                "is_symmetric": "True",
                "max": 0.26015374064445496,
                "min": -0.29731854796409607,
                "offset": -8,
                "scale": 0.03716481849551201
            },
            {
                "bitwidth": 4,
                "dtype": "int",
                "is_symmetric": "True",
                "max": 0.268790066242218,
                "min": -0.30718865990638733,
                "offset": -8,
                "scale": 0.038398582488298416
            },
            {
                "bitwidth": 4,
                "dtype": "int",
                "is_symmetric": "True",
                "max": 0.25318408012390137,
                "min": -0.28935325145721436,
                "offset": -8,
                "scale": 0.036169156432151794
            },
            {
                "bitwidth": 4,
                "dtype": "int",
                "is_symmetric": "True",
                "max": 0.3535025715827942,
                "min": -0.40400293469429016,
                "offset": -8,
                "scale": 0.05050036683678627
            },
            {
                "bitwidth": 4,
                "dtype": "int",
                "is_symmetric": "True",
                "max": 0.24718640744686127,
                "min": -0.2824987471103668,
                "offset": -8,
                "scale": 0.03531234338879585
            },
            {
                "bitwidth": 4,
                "dtype": "int",
                "is_symmetric": "True",
                "max": 0.24508912861347198,
                "min": -0.28010186553001404,
                "offset": -8,
                "scale": 0.035012733191251755
            },
            {
                "bitwidth": 4,
                "dtype": "int",
                "is_symmetric": "True",
                "max": 0.4279121458530426,
                "min": -0.4890424609184265,
                "offset": -8,
                "scale": 0.061130307614803314
            },
            {
                "bitwidth": 4,
                "dtype": "int",
                "is_symmetric": "True",
                "max": 0.2855665981769562,
                "min": -0.32636183500289917,
                "offset": -8,
                "scale": 0.040795229375362396
            },
            {
                "bitwidth": 4,
                "dtype": "int",
                "is_symmetric": "True",
                "max": 0.33300256729125977,
                "min": -0.38057437539100647,
                "offset": -8,
                "scale": 0.04757179692387581
            },
            {
                "bitwidth": 4,
                "dtype": "int",
                "is_symmetric": "True",
                "max": 0.38457101583480835,
                "min": -0.43950971961021423,
                "offset": -8,
                "scale": 0.05493871495127678
            },
            {
                "bitwidth": 4,
                "dtype": "int",
                "is_symmetric": "True",
                "max": 0.29903867840766907,
                "min": -0.34175848960876465,
                "offset": -8,
                "scale": 0.04271981120109558
            },
            {
                "bitwidth": 4,
                "dtype": "int",
                "is_symmetric": "True",
                "max": 0.2857140302658081,
                "min": -0.3265303075313568,
                "offset": -8,
                "scale": 0.0408162884414196
            },
            {
                "bitwidth": 4,
                "dtype": "int",
                "is_symmetric": "True",
                "max": 0.2780967950820923,
                "min": -0.3178249001502991,
                "offset": -8,
                "scale": 0.039728112518787384
            },
            {
                "bitwidth": 4,
                "dtype": "int",
                "is_symmetric": "True",
                "max": 0.26063546538352966,
                "min": -0.29786911606788635,
                "offset": -8,
                "scale": 0.037233639508485794
            },
            {
                "bitwidth": 4,
                "dtype": "int",
                "is_symmetric": "True",
                "max": 0.2743379473686218,
                "min": -0.3135290741920471,
                "offset": -8,
                "scale": 0.03919113427400589
            },
            {
                "bitwidth": 4,
                "dtype": "int",
                "is_symmetric": "True",
                "max": 0.2610754370689392,
                "min": -0.29837194085121155,
                "offset": -8,
                "scale": 0.037296492606401443
            },
            {
                "bitwidth": 4,
                "dtype": "int",
                "is_symmetric": "True",
                "max": 0.3904344439506531,
                "min": -0.4462108016014099,
                "offset": -8,
                "scale": 0.05577635020017624
            },
            {
                "bitwidth": 4,
                "dtype": "int",
                "is_symmetric": "True",
                "max": 0.33249571919441223,
                "min": -0.37999510765075684,
                "offset": -8,
                "scale": 0.047499388456344604
            },
            {
                "bitwidth": 4,
                "dtype": "int",
                "is_symmetric": "True",
                "max": 0.3301917612552643,
                "min": -0.3773620128631592,
                "offset": -8,
                "scale": 0.0471702516078949
            },
            {
                "bitwidth": 4,
                "dtype": "int",
                "is_symmetric": "True",
                "max": 0.29702064394950867,
                "min": -0.33945217728614807,
                "offset": -8,
                "scale": 0.04243152216076851
            },
            {
                "bitwidth": 4,
                "dtype": "int",
                "is_symmetric": "True",
                "max": 0.33667853474617004,
                "min": -0.38477545976638794,
                "offset": -8,
                "scale": 0.04809693247079849
            },
            {
                "bitwidth": 4,
                "dtype": "int",
                "is_symmetric": "True",
                "max": 0.3255881071090698,
                "min": -0.37210071086883545,
                "offset": -8,
                "scale": 0.04651258885860443
            },
            {
                "bitwidth": 4,
                "dtype": "int",
                "is_symmetric": "True",
                "max": 0.24203762412071228,
                "min": -0.2766144275665283,
                "offset": -8,
                "scale": 0.03457680344581604
            },
            {
                "bitwidth": 4,
                "dtype": "int",
                "is_symmetric": "True",
                "max": 0.3083451986312866,
                "min": -0.3523945212364197,
                "offset": -8,
                "scale": 0.04404931515455246
            },
            {
                "bitwidth": 4,
                "dtype": "int",
                "is_symmetric": "True",
                "max": 0.3029290437698364,
                "min": -0.34620463848114014,
                "offset": -8,
                "scale": 0.04327557981014252
            },
            {
                "bitwidth": 4,
                "dtype": "int",
                "is_symmetric": "True",
                "max": 0.2749788761138916,
                "min": -0.3142615556716919,
                "offset": -8,
                "scale": 0.03928269445896149
            },
            {
                "bitwidth": 4,
                "dtype": "int",
                "is_symmetric": "True",
                "max": 0.2916482090950012,
                "min": -0.3333122432231903,
                "offset": -8,
                "scale": 0.04166403040289879
            },
            {
                "bitwidth": 4,
                "dtype": "int",
                "is_symmetric": "True",
                "max": 0.33823108673095703,
                "min": -0.38654980063438416,
                "offset": -8,
                "scale": 0.04831872507929802
            },
            {
                "bitwidth": 4,
                "dtype": "int",
                "is_symmetric": "True",
                "max": 0.3189850151538849,
                "min": -0.3645543158054352,
                "offset": -8,
                "scale": 0.0455692894756794
            },
            {
                "bitwidth": 4,
                "dtype": "int",
                "is_symmetric": "True",
                "max": 0.2913934290409088,
                "min": -0.3330210745334625,
                "offset": -8,
                "scale": 0.041627634316682816
            },
            {
                "bitwidth": 4,
                "dtype": "int",
                "is_symmetric": "True",
                "max": 0.3259407579898834,
                "min": -0.37250372767448425,
                "offset": -8,
                "scale": 0.04656296595931053
            },
            {
                "bitwidth": 4,
                "dtype": "int",
                "is_symmetric": "True",
                "max": 0.31342431902885437,
                "min": -0.35819920897483826,
                "offset": -8,
                "scale": 0.04477490112185478
            },
            {
                "bitwidth": 4,
                "dtype": "int",
                "is_symmetric": "True",
                "max": 0.3139801323413849,
                "min": -0.358834445476532,
                "offset": -8,
                "scale": 0.0448543056845665
            },
            {
                "bitwidth": 4,
                "dtype": "int",
                "is_symmetric": "True",
                "max": 0.3066052198410034,
                "min": -0.3504059612751007,
                "offset": -8,
                "scale": 0.04380074515938759
            },
            {
                "bitwidth": 4,
                "dtype": "int",
                "is_symmetric": "True",
                "max": 0.30786263942718506,
                "min": -0.3518430292606354,
                "offset": -8,
                "scale": 0.04398037865757942
            },
            {
                "bitwidth": 4,
                "dtype": "int",
                "is_symmetric": "True",
                "max": 0.281525582075119,
                "min": -0.32174351811408997,
                "offset": -8,
                "scale": 0.040217939764261246
            },
            {
                "bitwidth": 4,
                "dtype": "int",
                "is_symmetric": "True",
                "max": 0.29186004400253296,
                "min": -0.33355432748794556,
                "offset": -8,
                "scale": 0.041694290935993195
            },
            {
                "bitwidth": 4,
                "dtype": "int",
                "is_symmetric": "True",
                "max": 0.27231839299201965,
                "min": -0.31122103333473206,
                "offset": -8,
                "scale": 0.03890262916684151
            },
            {
                "bitwidth": 4,
                "dtype": "int",
                "is_symmetric": "True",
                "max": 0.3488995432853699,
                "min": -0.39874231815338135,
                "offset": -8,
                "scale": 0.04984278976917267
            },
            {
                "bitwidth": 4,
                "dtype": "int",
                "is_symmetric": "True",
                "max": 0.32817763090133667,
                "min": -0.37506014108657837,
                "offset": -8,
                "scale": 0.046882517635822296
            },
            {
                "bitwidth": 4,
                "dtype": "int",
                "is_symmetric": "True",
                "max": 0.2800767123699188,
                "min": -0.3200876712799072,
                "offset": -8,
                "scale": 0.0400109589099884
            },
            {
                "bitwidth": 4,
                "dtype": "int",
                "is_symmetric": "True",
                "max": 0.2713581919670105,
                "min": -0.31012365221977234,
                "offset": -8,
                "scale": 0.03876545652747154
            },
            {
                "bitwidth": 4,
                "dtype": "int",
                "is_symmetric": "True",
                "max": 0.28008222579956055,
                "min": -0.32009395956993103,
                "offset": -8,
                "scale": 0.04001174494624138
            },
            {
                "bitwidth": 4,
                "dtype": "int",
                "is_symmetric": "True",
                "max": 0.28994184732437134,
                "min": -0.3313620984554291,
                "offset": -8,
                "scale": 0.041420262306928635
            },
            {
                "bitwidth": 4,
                "dtype": "int",
                "is_symmetric": "True",
                "max": 0.263895183801651,
                "min": -0.30159449577331543,
                "offset": -8,
                "scale": 0.03769931197166443
            },
            {
                "bitwidth": 4,
                "dtype": "int",
                "is_symmetric": "True",
                "max": 0.30844876170158386,
                "min": -0.3525128662586212,
                "offset": -8,
                "scale": 0.04406410828232765
            },
            {
                "bitwidth": 4,
                "dtype": "int",
                "is_symmetric": "True",
                "max": 0.3352622985839844,
                "min": -0.3831569254398346,
                "offset": -8,
                "scale": 0.047894615679979324
            },
            {
                "bitwidth": 4,
                "dtype": "int",
                "is_symmetric": "True",
                "max": 0.31386372447013855,
                "min": -0.3587014079093933,
                "offset": -8,
                "scale": 0.044837675988674164
            },
            {
                "bitwidth": 4,
                "dtype": "int",
                "is_symmetric": "True",
                "max": 0.26473572850227356,
                "min": -0.302555114030838,
                "offset": -8,
                "scale": 0.03781938925385475
            },
            {
                "bitwidth": 4,
                "dtype": "int",
                "is_symmetric": "True",
                "max": 0.301774799823761,
                "min": -0.3448854684829712,
                "offset": -8,
                "scale": 0.0431106835603714
            },
            {
                "bitwidth": 4,
                "dtype": "int",
                "is_symmetric": "True",
                "max": 0.35045188665390015,
                "min": -0.40051645040512085,
                "offset": -8,
                "scale": 0.050064556300640106
            },
            {
                "bitwidth": 4,
                "dtype": "int",
                "is_symmetric": "True",
                "max": 0.37696748971939087,
                "min": -0.4308199882507324,
                "offset": -8,
                "scale": 0.05385249853134155
            },
            {
                "bitwidth": 4,
                "dtype": "int",
                "is_symmetric": "True",
                "max": 0.29790306091308594,
                "min": -0.3404606282711029,
                "offset": -8,
                "scale": 0.04255757853388786
            },
            {
                "bitwidth": 4,
                "dtype": "int",
                "is_symmetric": "True",
                "max": 0.31096479296684265,
                "min": -0.355388343334198,
                "offset": -8,
                "scale": 0.04442354291677475
            },
            {
                "bitwidth": 4,
                "dtype": "int",
                "is_symmetric": "True",
                "max": 0.306068480014801,
                "min": -0.3497925400733948,
                "offset": -8,
                "scale": 0.04372406750917435
            },
            {
                "bitwidth": 4,
                "dtype": "int",
                "is_symmetric": "True",
                "max": 0.31807833909988403,
                "min": -0.363518089056015,
                "offset": -8,
                "scale": 0.04543976113200188
            },
            {
                "bitwidth": 4,
                "dtype": "int",
                "is_symmetric": "True",
                "max": 0.30454739928245544,
                "min": -0.3480541706085205,
                "offset": -8,
                "scale": 0.043506771326065063
            },
            {
                "bitwidth": 4,
                "dtype": "int",
                "is_symmetric": "True",
                "max": 0.35150644183158875,
                "min": -0.40172165632247925,
                "offset": -8,
                "scale": 0.050215207040309906
            },
            {
                "bitwidth": 4,
                "dtype": "int",
                "is_symmetric": "True",
                "max": 0.27999037504196167,
                "min": -0.31998899579048157,
                "offset": -8,
                "scale": 0.039998624473810196
            },
            {
                "bitwidth": 4,
                "dtype": "int",
                "is_symmetric": "True",
                "max": 0.2820869982242584,
                "min": -0.32238513231277466,
                "offset": -8,
                "scale": 0.04029814153909683
            },
            {
                "bitwidth": 4,
                "dtype": "int",
                "is_symmetric": "True",
                "max": 0.23880994319915771,
                "min": -0.27292564511299133,
                "offset": -8,
                "scale": 0.03411570563912392
            },
            {
                "bitwidth": 4,
                "dtype": "int",
                "is_symmetric": "True",
                "max": 0.2800741493701935,
                "min": -0.32008475065231323,
                "offset": -8,
                "scale": 0.040010593831539154
            },
            {
                "bitwidth": 4,
                "dtype": "int",
                "is_symmetric": "True",
                "max": 0.26008886098861694,
                "min": -0.29724442958831787,
                "offset": -8,
                "scale": 0.037155553698539734
            },
            {
                "bitwidth": 4,
                "dtype": "int",
                "is_symmetric": "True",
                "max": 0.26097118854522705,
                "min": -0.29825279116630554,
                "offset": -8,
                "scale": 0.03728159889578819
            },
            {
                "bitwidth": 4,
                "dtype": "int",
                "is_symmetric": "True",
                "max": 0.2205602377653122,
                "min": -0.2520688474178314,
                "offset": -8,
                "scale": 0.03150860592722893
            },
            {
                "bitwidth": 4,
                "dtype": "int",
                "is_symmetric": "True",
                "max": 0.2763039171695709,
                "min": -0.31577590107917786,
                "offset": -8,
                "scale": 0.03947198763489723
            },
            {
                "bitwidth": 4,
                "dtype": "int",
                "is_symmetric": "True",
                "max": 0.2785407602787018,
                "min": -0.3183322846889496,
                "offset": -8,
                "scale": 0.0397915355861187
            },
            {
                "bitwidth": 4,
                "dtype": "int",
                "is_symmetric": "True",
                "max": 0.22022001445293427,
                "min": -0.25168001651763916,
                "offset": -8,
                "scale": 0.031460002064704895
            },
            {
                "bitwidth": 4,
                "dtype": "int",
                "is_symmetric": "True",
                "max": 0.23516489565372467,
                "min": -0.2687598764896393,
                "offset": -8,
                "scale": 0.03359498456120491
            },
            {
                "bitwidth": 4,
                "dtype": "int",
                "is_symmetric": "True",
                "max": 0.2879570722579956,
                "min": -0.3290937840938568,
                "offset": -8,
                "scale": 0.0411367230117321
            },
            {
                "bitwidth": 4,
                "dtype": "int",
                "is_symmetric": "True",
                "max": 0.24885475635528564,
                "min": -0.2844054400920868,
                "offset": -8,
                "scale": 0.03555068001151085
            },
            {
                "bitwidth": 4,
                "dtype": "int",
                "is_symmetric": "True",
                "max": 0.2548238933086395,
                "min": -0.2912273108959198,
                "offset": -8,
                "scale": 0.036403413861989975
            },
            {
                "bitwidth": 4,
                "dtype": "int",
                "is_symmetric": "True",
                "max": 0.2393939048051834,
                "min": -0.2735930383205414,
                "offset": -8,
                "scale": 0.03419912979006767
            },
            {
                "bitwidth": 4,
                "dtype": "int",
                "is_symmetric": "True",
                "max": 0.35353100299835205,
                "min": -0.40403541922569275,
                "offset": -8,
                "scale": 0.050504427403211594
            },
            {
                "bitwidth": 4,
                "dtype": "int",
                "is_symmetric": "True",
                "max": 0.2868507504463196,
                "min": -0.32782942056655884,
                "offset": -8,
                "scale": 0.040978677570819855
            },
            {
                "bitwidth": 4,
                "dtype": "int",
                "is_symmetric": "True",
                "max": 0.2693437337875366,
                "min": -0.3078214228153229,
                "offset": -8,
                "scale": 0.03847767785191536
            },
            {
                "bitwidth": 4,
                "dtype": "int",
                "is_symmetric": "True",
                "max": 0.24979731440544128,
                "min": -0.28548264503479004,
                "offset": -8,
                "scale": 0.035685330629348755
            },
            {
                "bitwidth": 4,
                "dtype": "int",
                "is_symmetric": "True",
                "max": 0.26163703203201294,
                "min": -0.29901373386383057,
                "offset": -8,
                "scale": 0.03737671673297882
            },
            {
                "bitwidth": 4,
                "dtype": "int",
                "is_symmetric": "True",
                "max": 0.281558632850647,
                "min": -0.32178130745887756,
                "offset": -8,
                "scale": 0.040222663432359695
            },
            {
                "bitwidth": 4,
                "dtype": "int",
                "is_symmetric": "True",
                "max": 0.2431211769580841,
                "min": -0.27785277366638184,
                "offset": -8,
                "scale": 0.03473159670829773
            },
            {
                "bitwidth": 4,
                "dtype": "int",
                "is_symmetric": "True",
                "max": 0.24394451081752777,
                "min": -0.27879372239112854,
                "offset": -8,
                "scale": 0.03484921529889107
            },
            {
                "bitwidth": 4,
                "dtype": "int",
                "is_symmetric": "True",
                "max": 0.241831436753273,
                "min": -0.2763787806034088,
                "offset": -8,
                "scale": 0.0345473475754261
            },
            {
                "bitwidth": 4,
                "dtype": "int",
                "is_symmetric": "True",
                "max": 0.27198901772499084,
                "min": -0.3108446002006531,
                "offset": -8,
                "scale": 0.038855575025081635
            },
            {
                "bitwidth": 4,
                "dtype": "int",
                "is_symmetric": "True",
                "max": 0.3493809998035431,
                "min": -0.39929255843162537,
                "offset": -8,
                "scale": 0.04991156980395317
            },
            {
                "bitwidth": 4,
                "dtype": "int",
                "is_symmetric": "True",
                "max": 0.2381766140460968,
                "min": -0.2722018361091614,
                "offset": -8,
                "scale": 0.03402522951364517
            },
            {
                "bitwidth": 4,
                "dtype": "int",
                "is_symmetric": "True",
                "max": 0.26231849193573,
                "min": -0.2997925579547882,
                "offset": -8,
                "scale": 0.037474069744348526
            },
            {
                "bitwidth": 4,
                "dtype": "int",
                "is_symmetric": "True",
                "max": 0.25531789660453796,
                "min": -0.2917918860912323,
                "offset": -8,
                "scale": 0.03647398576140404
            },
            {
                "bitwidth": 4,
                "dtype": "int",
                "is_symmetric": "True",
                "max": 0.2455282211303711,
                "min": -0.28060367703437805,
                "offset": -8,
                "scale": 0.035075459629297256
            },
            {
                "bitwidth": 4,
                "dtype": "int",
                "is_symmetric": "True",
                "max": 0.2511627674102783,
                "min": -0.28704315423965454,
                "offset": -8,
                "scale": 0.03588039427995682
            },
            {
                "bitwidth": 4,
                "dtype": "int",
                "is_symmetric": "True",
                "max": 0.25648781657218933,
                "min": -0.29312893748283386,
                "offset": -8,
                "scale": 0.03664111718535423
            },
            {
                "bitwidth": 4,
                "dtype": "int",
                "is_symmetric": "True",
                "max": 0.28364652395248413,
                "min": -0.3241674602031708,
                "offset": -8,
                "scale": 0.04052093252539635
            },
            {
                "bitwidth": 4,
                "dtype": "int",
                "is_symmetric": "True",
                "max": 0.24663570523262024,
                "min": -0.28186938166618347,
                "offset": -8,
                "scale": 0.035233672708272934
            },
            {
                "bitwidth": 4,
                "dtype": "int",
                "is_symmetric": "True",
                "max": 0.27584558725357056,
                "min": -0.3152520954608917,
                "offset": -8,
                "scale": 0.039406511932611465
            },
            {
                "bitwidth": 4,
                "dtype": "int",
                "is_symmetric": "True",
                "max": 0.2836199700832367,
                "min": -0.3241371214389801,
                "offset": -8,
                "scale": 0.04051714017987251
            },
            {
                "bitwidth": 4,
                "dtype": "int",
                "is_symmetric": "True",
                "max": 0.24988052248954773,
                "min": -0.2855777442455292,
                "offset": -8,
                "scale": 0.03569721803069115
            },
            {
                "bitwidth": 4,
                "dtype": "int",
                "is_symmetric": "True",
                "max": 0.2543521523475647,
                "min": -0.2906881868839264,
                "offset": -8,
                "scale": 0.0363360233604908
            },
            {
                "bitwidth": 4,
                "dtype": "int",
                "is_symmetric": "True",
                "max": 0.27040666341781616,
                "min": -0.3090361952781677,
                "offset": -8,
                "scale": 0.038629524409770966
            },
            {
                "bitwidth": 4,
                "dtype": "int",
                "is_symmetric": "True",
                "max": 0.24889762699604034,
                "min": -0.28445443511009216,
                "offset": -8,
                "scale": 0.03555680438876152
            },
            {
                "bitwidth": 4,
                "dtype": "int",
                "is_symmetric": "True",
                "max": 0.2504708170890808,
                "min": -0.28625237941741943,
                "offset": -8,
                "scale": 0.03578154742717743
            },
            {
                "bitwidth": 4,
                "dtype": "int",
                "is_symmetric": "True",
                "max": 0.2687528431415558,
                "min": -0.3071461021900177,
                "offset": -8,
                "scale": 0.03839326277375221
            },
            {
                "bitwidth": 4,
                "dtype": "int",
                "is_symmetric": "True",
                "max": 0.26554208993911743,
                "min": -0.3034766912460327,
                "offset": -8,
                "scale": 0.03793458640575409
            },
            {
                "bitwidth": 4,
                "dtype": "int",
                "is_symmetric": "True",
                "max": 0.2317037135362625,
                "min": -0.26480424404144287,
                "offset": -8,
                "scale": 0.03310053050518036
            },
            {
                "bitwidth": 4,
                "dtype": "int",
                "is_symmetric": "True",
                "max": 0.2591172754764557,
                "min": -0.29613402485847473,
                "offset": -8,
                "scale": 0.03701675310730934
            },
            {
                "bitwidth": 4,
                "dtype": "int",
                "is_symmetric": "True",
                "max": 0.25148916244506836,
                "min": -0.2874161899089813,
                "offset": -8,
                "scale": 0.035927023738622665
            },
            {
                "bitwidth": 4,
                "dtype": "int",
                "is_symmetric": "True",
                "max": 0.270978718996048,
                "min": -0.3096899688243866,
                "offset": -8,
                "scale": 0.038711246103048325
            },
            {
                "bitwidth": 4,
                "dtype": "int",
                "is_symmetric": "True",
                "max": 0.26507675647735596,
                "min": -0.3029448688030243,
                "offset": -8,
                "scale": 0.037868108600378036
            },
            {
                "bitwidth": 4,
                "dtype": "int",
                "is_symmetric": "True",
                "max": 0.25874224305152893,
                "min": -0.2957054078578949,
                "offset": -8,
                "scale": 0.03696317598223686
            },
            {
                "bitwidth": 4,
                "dtype": "int",
                "is_symmetric": "True",
                "max": 0.27932029962539673,
                "min": -0.31922319531440735,
                "offset": -8,
                "scale": 0.03990289941430092
            },
            {
                "bitwidth": 4,
                "dtype": "int",
                "is_symmetric": "True",
                "max": 0.24944305419921875,
                "min": -0.2850777804851532,
                "offset": -8,
                "scale": 0.03563472256064415
            },
            {
                "bitwidth": 4,
                "dtype": "int",
                "is_symmetric": "True",
                "max": 0.2254762053489685,
                "min": -0.2576870918273926,
                "offset": -8,
                "scale": 0.03221088647842407
            },
            {
                "bitwidth": 4,
                "dtype": "int",
                "is_symmetric": "True",
                "max": 0.2822168469429016,
                "min": -0.3225335478782654,
                "offset": -8,
                "scale": 0.04031669348478317
            },
            {
                "bitwidth": 4,
                "dtype": "int",
                "is_symmetric": "True",
                "max": 0.26115521788597107,
                "min": -0.2984631061553955,
                "offset": -8,
                "scale": 0.03730788826942444
            },
            {
                "bitwidth": 4,
                "dtype": "int",
                "is_symmetric": "True",
                "max": 0.2196102738380432,
                "min": -0.25098317861557007,
                "offset": -8,
                "scale": 0.03137289732694626
            },
            {
                "bitwidth": 4,
                "dtype": "int",
                "is_symmetric": "True",
                "max": 0.2214178591966629,
                "min": -0.25304898619651794,
                "offset": -8,
                "scale": 0.03163112327456474
            },
            {
                "bitwidth": 4,
                "dtype": "int",
                "is_symmetric": "True",
                "max": 0.23226851224899292,
                "min": -0.26544973254203796,
                "offset": -8,
                "scale": 0.033181216567754745
            },
            {
                "bitwidth": 4,
                "dtype": "int",
                "is_symmetric": "True",
                "max": 0.26926296949386597,
                "min": -0.3077290952205658,
                "offset": -8,
                "scale": 0.038466136902570724
            },
            {
                "bitwidth": 4,
                "dtype": "int",
                "is_symmetric": "True",
                "max": 0.23994889855384827,
                "min": -0.2742273211479187,
                "offset": -8,
                "scale": 0.03427841514348984
            },
            {
                "bitwidth": 4,
                "dtype": "int",
                "is_symmetric": "True",
                "max": 0.36607375741004944,
                "min": -0.41837000846862793,
                "offset": -8,
                "scale": 0.05229625105857849
            },
            {
                "bitwidth": 4,
                "dtype": "int",
                "is_symmetric": "True",
                "max": 0.2550511360168457,
                "min": -0.2914870083332062,
                "offset": -8,
                "scale": 0.03643587604165077
            },
            {
                "bitwidth": 4,
                "dtype": "int",
                "is_symmetric": "True",
                "max": 0.3740546703338623,
                "min": -0.42749103903770447,
                "offset": -8,
                "scale": 0.05343637987971306
            },
            {
                "bitwidth": 4,
                "dtype": "int",
                "is_symmetric": "True",
                "max": 0.2275182008743286,
                "min": -0.26002079248428345,
                "offset": -8,
                "scale": 0.03250259906053543
            },
            {
                "bitwidth": 4,
                "dtype": "int",
                "is_symmetric": "True",
                "max": 0.2852819859981537,
                "min": -0.3260365426540375,
                "offset": -8,
                "scale": 0.040754567831754684
            },
            {
                "bitwidth": 4,
                "dtype": "int",
                "is_symmetric": "True",
                "max": 0.28556936979293823,
                "min": -0.32636499404907227,
                "offset": -8,
                "scale": 0.04079562425613403
            },
            {
                "bitwidth": 4,
                "dtype": "int",
                "is_symmetric": "True",
                "max": 0.316091388463974,
                "min": -0.36124730110168457,
                "offset": -8,
                "scale": 0.04515591263771057
            },
            {
                "bitwidth": 4,
                "dtype": "int",
                "is_symmetric": "True",
                "max": 0.24835167825222015,
                "min": -0.2838304936885834,
                "offset": -8,
                "scale": 0.03547881171107292
            },
            {
                "bitwidth": 4,
                "dtype": "int",
                "is_symmetric": "True",
                "max": 0.28457605838775635,
                "min": -0.32522979378700256,
                "offset": -8,
                "scale": 0.04065372422337532
            },
            {
                "bitwidth": 4,
                "dtype": "int",
                "is_symmetric": "True",
                "max": 0.2625253200531006,
                "min": -0.3000289499759674,
                "offset": -8,
                "scale": 0.037503618746995926
            },
            {
                "bitwidth": 4,
                "dtype": "int",
                "is_symmetric": "True",
                "max": 0.2744145095348358,
                "min": -0.3136165738105774,
                "offset": -8,
                "scale": 0.039202071726322174
            },
            {
                "bitwidth": 4,
                "dtype": "int",
                "is_symmetric": "True",
                "max": 0.2882643938064575,
                "min": -0.3294450342655182,
                "offset": -8,
                "scale": 0.041180629283189774
            },
            {
                "bitwidth": 4,
                "dtype": "int",
                "is_symmetric": "True",
                "max": 0.25773149728775024,
                "min": -0.2945502996444702,
                "offset": -8,
                "scale": 0.03681878745555878
            },
            {
                "bitwidth": 4,
                "dtype": "int",
                "is_symmetric": "True",
                "max": 0.25639617443084717,
                "min": -0.2930241823196411,
                "offset": -8,
                "scale": 0.03662802278995514
            },
            {
                "bitwidth": 4,
                "dtype": "int",
                "is_symmetric": "True",
                "max": 0.2547715902328491,
                "min": -0.2911675274372101,
                "offset": -8,
                "scale": 0.03639594092965126
            },
            {
                "bitwidth": 4,
                "dtype": "int",
                "is_symmetric": "True",
                "max": 0.23325516283512115,
                "min": -0.2665773332118988,
                "offset": -8,
                "scale": 0.03332216665148735
            },
            {
                "bitwidth": 4,
                "dtype": "int",
                "is_symmetric": "True",
                "max": 0.2679620683193207,
                "min": -0.3062423765659332,
                "offset": -8,
                "scale": 0.03828029707074165
            },
            {
                "bitwidth": 4,
                "dtype": "int",
                "is_symmetric": "True",
                "max": 0.2400316745042801,
                "min": -0.27432191371917725,
                "offset": -8,
                "scale": 0.034290239214897156
            },
            {
                "bitwidth": 4,
                "dtype": "int",
                "is_symmetric": "True",
                "max": 0.3007097542285919,
                "min": -0.34366828203201294,
                "offset": -8,
                "scale": 0.04295853525400162
            },
            {
                "bitwidth": 4,
                "dtype": "int",
                "is_symmetric": "True",
                "max": 0.24111290276050568,
                "min": -0.27555760741233826,
                "offset": -8,
                "scale": 0.03444470092654228
            },
            {
                "bitwidth": 4,
                "dtype": "int",
                "is_symmetric": "True",
                "max": 0.2759236991405487,
                "min": -0.31534138321876526,
                "offset": -8,
                "scale": 0.03941767290234566
            },
            {
                "bitwidth": 4,
                "dtype": "int",
                "is_symmetric": "True",
                "max": 0.2686494290828705,
                "min": -0.3070279061794281,
                "offset": -8,
                "scale": 0.03837848827242851
            },
            {
                "bitwidth": 4,
                "dtype": "int",
                "is_symmetric": "True",
                "max": 0.2700282037258148,
                "min": -0.3086036741733551,
                "offset": -8,
                "scale": 0.03857545927166939
            },
            {
                "bitwidth": 4,
                "dtype": "int",
                "is_symmetric": "True",
                "max": 0.32098057866096497,
                "min": -0.36683493852615356,
                "offset": -8,
                "scale": 0.045854367315769196
            },
            {
                "bitwidth": 4,
                "dtype": "int",
                "is_symmetric": "True",
                "max": 0.25623831152915955,
                "min": -0.2928437888622284,
                "offset": -8,
                "scale": 0.03660547360777855
            },
            {
                "bitwidth": 4,
                "dtype": "int",
                "is_symmetric": "True",
                "max": 0.26031365990638733,
                "min": -0.2975013256072998,
                "offset": -8,
                "scale": 0.037187665700912476
            },
            {
                "bitwidth": 4,
                "dtype": "int",
                "is_symmetric": "True",
                "max": 0.2749575972557068,
                "min": -0.3142372667789459,
                "offset": -8,
                "scale": 0.03927965834736824
            },
            {
                "bitwidth": 4,
                "dtype": "int",
                "is_symmetric": "True",
                "max": 0.24693965911865234,
                "min": -0.28221675753593445,
                "offset": -8,
                "scale": 0.035277094691991806
            },
            {
                "bitwidth": 4,
                "dtype": "int",
                "is_symmetric": "True",
                "max": 0.2864668667316437,
                "min": -0.3273907005786896,
                "offset": -8,
                "scale": 0.0409238375723362
            },
            {
                "bitwidth": 4,
                "dtype": "int",
                "is_symmetric": "True",
                "max": 0.32574763894081116,
                "min": -0.372283011674881,
                "offset": -8,
                "scale": 0.04653537645936012
            },
            {
                "bitwidth": 4,
                "dtype": "int",
                "is_symmetric": "True",
                "max": 0.3017539381980896,
                "min": -0.3448616564273834,
                "offset": -8,
                "scale": 0.04310770705342293
            },
            {
                "bitwidth": 4,
                "dtype": "int",
                "is_symmetric": "True",
                "max": 0.31226879358291626,
                "min": -0.3568786084651947,
                "offset": -8,
                "scale": 0.04460982605814934
            },
            {
                "bitwidth": 4,
                "dtype": "int",
                "is_symmetric": "True",
                "max": 0.3188292682170868,
                "min": -0.3643763065338135,
                "offset": -8,
                "scale": 0.045547038316726685
            },
            {
                "bitwidth": 4,
                "dtype": "int",
                "is_symmetric": "True",
                "max": 0.294351726770401,
                "min": -0.33640196919441223,
                "offset": -8,
                "scale": 0.04205024614930153
            },
            {
                "bitwidth": 4,
                "dtype": "int",
                "is_symmetric": "True",
                "max": 0.2763424515724182,
                "min": -0.31581994891166687,
                "offset": -8,
                "scale": 0.03947749361395836
            },
            {
                "bitwidth": 4,
                "dtype": "int",
                "is_symmetric": "True",
                "max": 0.2698352336883545,
                "min": -0.30838310718536377,
                "offset": -8,
                "scale": 0.03854788839817047
            },
            {
                "bitwidth": 4,
                "dtype": "int",
                "is_symmetric": "True",
                "max": 0.24844440817832947,
                "min": -0.283936470746994,
                "offset": -8,
                "scale": 0.03549205884337425
            },
            {
                "bitwidth": 4,
                "dtype": "int",
                "is_symmetric": "True",
                "max": 0.2578703463077545,
                "min": -0.2947089672088623,
                "offset": -8,
                "scale": 0.03683862090110779
            },
            {
                "bitwidth": 4,
                "dtype": "int",
                "is_symmetric": "True",
                "max": 0.24753786623477936,
                "min": -0.2829004228115082,
                "offset": -8,
                "scale": 0.03536255285143852
            },
            {
                "bitwidth": 4,
                "dtype": "int",
                "is_symmetric": "True",
                "max": 0.26745712757110596,
                "min": -0.3056652843952179,
                "offset": -8,
                "scale": 0.03820816054940224
            },
            {
                "bitwidth": 4,
                "dtype": "int",
                "is_symmetric": "True",
                "max": 0.2701416015625,
                "min": -0.3087332546710968,
                "offset": -8,
                "scale": 0.0385916568338871
            },
            {
                "bitwidth": 4,
                "dtype": "int",
                "is_symmetric": "True",
                "max": 0.26792314648628235,
                "min": -0.3061978816986084,
                "offset": -8,
                "scale": 0.03827473521232605
            },
            {
                "bitwidth": 4,
                "dtype": "int",
                "is_symmetric": "True",
                "max": 0.2935446500778198,
                "min": -0.33547961711883545,
                "offset": -8,
                "scale": 0.04193495213985443
            },
            {
                "bitwidth": 4,
                "dtype": "int",
                "is_symmetric": "True",
                "max": 0.2612363398075104,
                "min": -0.29855582118034363,
                "offset": -8,
                "scale": 0.037319477647542953
            },
            {
                "bitwidth": 4,
                "dtype": "int",
                "is_symmetric": "True",
                "max": 0.24071499705314636,
                "min": -0.2751028537750244,
                "offset": -8,
                "scale": 0.03438785672187805
            },
            {
                "bitwidth": 4,
                "dtype": "int",
                "is_symmetric": "True",
                "max": 0.3599449098110199,
                "min": -0.4113655984401703,
                "offset": -8,
                "scale": 0.051420699805021286
            },
            {
                "bitwidth": 4,
                "dtype": "int",
                "is_symmetric": "True",
                "max": 0.2911926805973053,
                "min": -0.33279162645339966,
                "offset": -8,
                "scale": 0.04159895330667496
            },
            {
                "bitwidth": 4,
                "dtype": "int",
                "is_symmetric": "True",
                "max": 0.23164592683315277,
                "min": -0.26473820209503174,
                "offset": -8,
                "scale": 0.03309227526187897
            },
            {
                "bitwidth": 4,
                "dtype": "int",
                "is_symmetric": "True",
                "max": 0.2517094612121582,
                "min": -0.2876679599285126,
                "offset": -8,
                "scale": 0.03595849499106407
            },
            {
                "bitwidth": 4,
                "dtype": "int",
                "is_symmetric": "True",
                "max": 0.23034030199050903,
                "min": -0.2632460594177246,
                "offset": -8,
                "scale": 0.032905757427215576
            },
            {
                "bitwidth": 4,
                "dtype": "int",
                "is_symmetric": "True",
                "max": 0.250380277633667,
                "min": -0.28614887595176697,
                "offset": -8,
                "scale": 0.03576860949397087
            },
            {
                "bitwidth": 4,
                "dtype": "int",
                "is_symmetric": "True",
                "max": 0.2560395896434784,
                "min": -0.29261666536331177,
                "offset": -8,
                "scale": 0.03657708317041397
            },
            {
                "bitwidth": 4,
                "dtype": "int",
                "is_symmetric": "True",
                "max": 0.2877728044986725,
                "min": -0.32888320088386536,
                "offset": -8,
                "scale": 0.04111040011048317
            },
            {
                "bitwidth": 4,
                "dtype": "int",
                "is_symmetric": "True",
                "max": 0.27163541316986084,
                "min": -0.3104404807090759,
                "offset": -8,
                "scale": 0.03880506008863449
            },
            {
                "bitwidth": 4,
                "dtype": "int",
                "is_symmetric": "True",
                "max": 0.25132322311401367,
                "min": -0.2872265577316284,
                "offset": -8,
                "scale": 0.03590331971645355
            },
            {
                "bitwidth": 4,
                "dtype": "int",
                "is_symmetric": "True",
                "max": 0.22932656109333038,
                "min": -0.26208749413490295,
                "offset": -8,
                "scale": 0.03276093676686287
            },
            {
                "bitwidth": 4,
                "dtype": "int",
                "is_symmetric": "True",
                "max": 0.3081808090209961,
                "min": -0.35220664739608765,
                "offset": -8,
                "scale": 0.044025830924510956
            },
            {
                "bitwidth": 4,
                "dtype": "int",
                "is_symmetric": "True",
                "max": 0.30187714099884033,
                "min": -0.3450024425983429,
                "offset": -8,
                "scale": 0.04312530532479286
            },
            {
                "bitwidth": 4,
                "dtype": "int",
                "is_symmetric": "True",
                "max": 0.3201165497303009,
                "min": -0.36584749817848206,
                "offset": -8,
                "scale": 0.04573093727231026
            },
            {
                "bitwidth": 4,
                "dtype": "int",
                "is_symmetric": "True",
                "max": 0.3594318628311157,
                "min": -0.41077926754951477,
                "offset": -8,
                "scale": 0.051347408443689346
            },
            {
                "bitwidth": 4,
                "dtype": "int",
                "is_symmetric": "True",
                "max": 0.2709231972694397,
                "min": -0.3096265196800232,
                "offset": -8,
                "scale": 0.0387033149600029
            },
            {
                "bitwidth": 4,
                "dtype": "int",
                "is_symmetric": "True",
                "max": 0.21137061715126038,
                "min": -0.24156641960144043,
                "offset": -8,
                "scale": 0.030195802450180054
            },
            {
                "bitwidth": 4,
                "dtype": "int",
                "is_symmetric": "True",
                "max": 0.22966115176677704,
                "min": -0.2624698877334595,
                "offset": -8,
                "scale": 0.032808735966682434
            },
            {
                "bitwidth": 4,
                "dtype": "int",
                "is_symmetric": "True",
                "max": 0.29941418766975403,
                "min": -0.34218764305114746,
                "offset": -8,
                "scale": 0.04277345538139343
            },
            {
                "bitwidth": 4,
                "dtype": "int",
                "is_symmetric": "True",
                "max": 0.2142668068408966,
                "min": -0.24487635493278503,
                "offset": -8,
                "scale": 0.03060954436659813
            },
            {
                "bitwidth": 4,
                "dtype": "int",
                "is_symmetric": "True",
                "max": 0.2169380933046341,
                "min": -0.24792924523353577,
                "offset": -8,
                "scale": 0.03099115565419197
            },
            {
                "bitwidth": 4,
