{
    "param_encodings": {
        "conv1.weight": [
            {
                "bitwidth": 5,
                "dtype": "int",
                "is_symmetric": "True",
                "max": 0.17536737024784088,
                "min": -0.18705852329730988,
                "offset": -16,
                "scale": 0.011691157706081867
            },
            {
                "bitwidth": 5,
                "dtype": "int",
                "is_symmetric": "True",
                "max": 0.04048106446862221,
                "min": -0.04317980259656906,
                "offset": -16,
                "scale": 0.0026987376622855663
            },
            {
                "bitwidth": 5,
                "dtype": "int",
                "is_symmetric": "True",
                "max": 1.7881393432617188e-06,
                "min": -1.9073486328125e-06,
                "offset": -16,
                "scale": 1.1920928955078125e-07
            },
            {
                "bitwidth": 5,
                "dtype": "int",
                "is_symmetric": "True",
                "max": 0.044170498847961426,
                "min": -0.04711519926786423,
                "offset": -16,
                "scale": 0.002944699954241514
            },
            {
                "bitwidth": 5,
                "dtype": "int",
                "is_symmetric": "True",
                "max": 1.7881393432617188e-06,
                "min": -1.9073486328125e-06,
                "offset": -16,
                "scale": 1.1920928955078125e-07
            },
            {
                "bitwidth": 5,
                "dtype": "int",
                "is_symmetric": "True",
                "max": 0.11110823601484299,
                "min": -0.11851545423269272,
                "offset": -16,
                "scale": 0.007407215889543295
            },
            {
                "bitwidth": 5,
                "dtype": "int",
                "is_symmetric": "True",
                "max": 0.1105663850903511,
                "min": -0.11793747544288635,
                "offset": -16,
                "scale": 0.007371092215180397
            },
            {
                "bitwidth": 5,
                "dtype": "int",
                "is_symmetric": "True",
                "max": 1.7881393432617188e-06,
                "min": -1.9073486328125e-06,
                "offset": -16,
                "scale": 1.1920928955078125e-07
            },
            {
                "bitwidth": 5,
                "dtype": "int",
                "is_symmetric": "True",
                "max": 0.19203703105449677,
                "min": -0.20483949780464172,
                "offset": -16,
                "scale": 0.012802468612790108
            },
            {
                "bitwidth": 5,
                "dtype": "int",
                "is_symmetric": "True",
                "max": 1.7881393432617188e-06,
                "min": -1.9073486328125e-06,
                "offset": -16,
                "scale": 1.1920928955078125e-07
            },
            {
                "bitwidth": 5,
                "dtype": "int",
                "is_symmetric": "True",
                "max": 0.09101887047290802,
                "min": -0.09708679467439651,
                "offset": -16,
                "scale": 0.006067924667149782
            },
            {
                "bitwidth": 5,
                "dtype": "int",
                "is_symmetric": "True",
                "max": 0.07376420497894287,
                "min": -0.0786818191409111,
                "offset": -16,
                "scale": 0.004917613696306944
            },
            {
                "bitwidth": 5,
                "dtype": "int",
                "is_symmetric": "True",
                "max": 0.03423914685845375,
                "min": -0.036521755158901215,
                "offset": -16,
                "scale": 0.002282609697431326
            },
            {
                "bitwidth": 5,
                "dtype": "int",
                "is_symmetric": "True",
                "max": 1.7881393432617188e-06,
                "min": -1.9073486328125e-06,
                "offset": -16,
                "scale": 1.1920928955078125e-07
            },
            {
                "bitwidth": 5,
                "dtype": "int",
                "is_symmetric": "True",
                "max": 0.02118556573987007,
                "min": -0.022597936913371086,
                "offset": -16,
                "scale": 0.0014123710570856929
            },
            {
                "bitwidth": 5,
                "dtype": "int",
                "is_symmetric": "True",
                "max": 0.18881845474243164,
                "min": -0.2014063447713852,
                "offset": -16,
                "scale": 0.012587896548211575
            },
            {
                "bitwidth": 5,
                "dtype": "int",
                "is_symmetric": "True",
                "max": 0.03299427032470703,
                "min": -0.03519388660788536,
                "offset": -16,
                "scale": 0.002199617912992835
            },
            {
                "bitwidth": 5,
                "dtype": "int",
                "is_symmetric": "True",
                "max": 0.013191362842917442,
                "min": -0.014070787467062473,
                "offset": -16,
                "scale": 0.0008794242166914046
            },
            {
                "bitwidth": 5,
                "dtype": "int",
                "is_symmetric": "True",
                "max": 0.07729032635688782,
                "min": -0.08244301378726959,
                "offset": -16,
                "scale": 0.0051526883617043495
            },
            {
                "bitwidth": 5,
                "dtype": "int",
                "is_symmetric": "True",
                "max": 0.020419597625732422,
                "min": -0.02178090438246727,
                "offset": -16,
                "scale": 0.0013613065239042044
            },
            {
                "bitwidth": 5,
                "dtype": "int",
                "is_symmetric": "True",
                "max": 0.053010404109954834,
                "min": -0.056544430553913116,
                "offset": -16,
                "scale": 0.0035340269096195698
            },
            {
                "bitwidth": 5,
                "dtype": "int",
                "is_symmetric": "True",
                "max": 0.010547209531068802,
                "min": -0.011250357143580914,
                "offset": -16,
                "scale": 0.0007031473214738071
            },
            {
                "bitwidth": 5,
                "dtype": "int",
                "is_symmetric": "True",
                "max": 0.029444940388202667,
                "min": -0.03140793740749359,
                "offset": -16,
                "scale": 0.0019629960879683495
            },
            {
                "bitwidth": 5,
                "dtype": "int",
                "is_symmetric": "True",
                "max": 0.19103503227233887,
                "min": -0.2037706971168518,
                "offset": -16,
                "scale": 0.012735668569803238
            },
            {
                "bitwidth": 5,
                "dtype": "int",
                "is_symmetric": "True",
                "max": 0.38116979598999023,
                "min": -0.4065811038017273,
                "offset": -16,
                "scale": 0.025411318987607956
            },
            {
                "bitwidth": 5,
                "dtype": "int",
                "is_symmetric": "True",
                "max": 0.03029448911547661,
                "min": -0.03231412172317505,
                "offset": -16,
                "scale": 0.0020196326076984406
            },
            {
                "bitwidth": 5,
                "dtype": "int",
                "is_symmetric": "True",
                "max": 0.021228216588497162,
                "min": -0.022643430158495903,
                "offset": -16,
                "scale": 0.001415214384905994
            },
            {
                "bitwidth": 5,
                "dtype": "int",
                "is_symmetric": "True",
                "max": 0.030914027243852615,
                "min": -0.0329749621450901,
                "offset": -16,
                "scale": 0.0020609351340681314
            },
            {
                "bitwidth": 5,
                "dtype": "int",
                "is_symmetric": "True",
                "max": 0.0760248601436615,
                "min": -0.0810931846499443,
                "offset": -16,
                "scale": 0.005068324040621519
            },
            {
                "bitwidth": 5,
                "dtype": "int",
                "is_symmetric": "True",
                "max": 0.09788084030151367,
                "min": -0.10440623015165329,
                "offset": -16,
                "scale": 0.006525389384478331
            },
            {
                "bitwidth": 5,
                "dtype": "int",
                "is_symmetric": "True",
                "max": 0.13144813477993011,
                "min": -0.1402113437652588,
                "offset": -16,
                "scale": 0.008763208985328674
            },
            {
                "bitwidth": 5,
                "dtype": "int",
                "is_symmetric": "True",
                "max": 0.05852171406149864,
                "min": -0.062423162162303925,
                "offset": -16,
                "scale": 0.0039014476351439953
            },
            {
                "bitwidth": 5,
                "dtype": "int",
                "is_symmetric": "True",
                "max": 0.03512333333492279,
                "min": -0.03746488690376282,
                "offset": -16,
                "scale": 0.002341555431485176
            },
            {
                "bitwidth": 5,
                "dtype": "int",
                "is_symmetric": "True",
                "max": 0.0838385820388794,
                "min": -0.08942782133817673,
                "offset": -16,
                "scale": 0.0055892388336360455
            },
            {
                "bitwidth": 5,
                "dtype": "int",
                "is_symmetric": "True",
                "max": 0.04712945222854614,
                "min": -0.0502714142203331,
                "offset": -16,
                "scale": 0.0031419633887708187
            },
            {
                "bitwidth": 5,
                "dtype": "int",
                "is_symmetric": "True",
                "max": 0.03300809487700462,
                "min": -0.03520863503217697,
                "offset": -16,
                "scale": 0.0022005396895110607
            },
            {
                "bitwidth": 5,
                "dtype": "int",
                "is_symmetric": "True",
                "max": 1.7881393432617188e-06,
                "min": -1.9073486328125e-06,
                "offset": -16,
                "scale": 1.1920928955078125e-07
            },
            {
                "bitwidth": 5,
                "dtype": "int",
                "is_symmetric": "True",
                "max": 0.036555901169776917,
                "min": -0.03899296000599861,
                "offset": -16,
                "scale": 0.002437060000374913
            },
            {
                "bitwidth": 5,
                "dtype": "int",
                "is_symmetric": "True",
                "max": 1.7881393432617188e-06,
                "min": -1.9073486328125e-06,
                "offset": -16,
                "scale": 1.1920928955078125e-07
            },
            {
                "bitwidth": 5,
                "dtype": "int",
                "is_symmetric": "True",
                "max": 0.3578897714614868,
                "min": -0.38174909353256226,
                "offset": -16,
                "scale": 0.02385931834578514
            },
            {
                "bitwidth": 5,
                "dtype": "int",
                "is_symmetric": "True",
                "max": 0.2763175964355469,
                "min": -0.29473876953125,
                "offset": -16,
                "scale": 0.018421173095703125
            },
            {
                "bitwidth": 5,
                "dtype": "int",
                "is_symmetric": "True",
                "max": 0.1449870616197586,
                "min": -0.15465286374092102,
                "offset": -16,
                "scale": 0.009665803983807564
            },
            {
                "bitwidth": 5,
                "dtype": "int",
                "is_symmetric": "True",
                "max": 0.13200324773788452,
                "min": -0.14080345630645752,
                "offset": -16,
                "scale": 0.008800216019153595
            },
            {
                "bitwidth": 5,
                "dtype": "int",
                "is_symmetric": "True",
                "max": 0.07685159891843796,
                "min": -0.08197503536939621,
                "offset": -16,
                "scale": 0.005123439710587263
            },
            {
                "bitwidth": 5,
                "dtype": "int",
                "is_symmetric": "True",
                "max": 0.10052309930324554,
                "min": -0.10722463577985764,
                "offset": -16,
                "scale": 0.006701539736241102
            },
            {
                "bitwidth": 5,
                "dtype": "int",
                "is_symmetric": "True",
                "max": 0.03478002920746803,
                "min": -0.03709869831800461,
                "offset": -16,
                "scale": 0.002318668644875288
            },
            {
                "bitwidth": 5,
                "dtype": "int",
                "is_symmetric": "True",
                "max": 0.015238944441080093,
                "min": -0.01625487394630909,
                "offset": -16,
                "scale": 0.001015929621644318
            },
            {
                "bitwidth": 5,
                "dtype": "int",
                "is_symmetric": "True",
                "max": 0.21107707917690277,
                "min": -0.22514888644218445,
                "offset": -16,
                "scale": 0.014071805402636528
            },
            {
                "bitwidth": 5,
                "dtype": "int",
                "is_symmetric": "True",
                "max": 1.7881393432617188e-06,
                "min": -1.9073486328125e-06,
                "offset": -16,
                "scale": 1.1920928955078125e-07
            },
            {
                "bitwidth": 5,
                "dtype": "int",
                "is_symmetric": "True",
                "max": 0.14481322467327118,
                "min": -0.15446743369102478,
                "offset": -16,
                "scale": 0.009654214605689049
            },
            {
                "bitwidth": 5,
                "dtype": "int",
                "is_symmetric": "True",
                "max": 0.2894427180290222,
                "min": -0.3087388873100281,
                "offset": -16,
                "scale": 0.019296180456876755
            },
            {
                "bitwidth": 5,
                "dtype": "int",
                "is_symmetric": "True",
                "max": 0.1266954094171524,
                "min": -0.1351417750120163,
                "offset": -16,
                "scale": 0.008446360938251019
            },
            {
                "bitwidth": 5,
                "dtype": "int",
                "is_symmetric": "True",
                "max": 0.05961672589182854,
                "min": -0.06359117478132248,
                "offset": -16,
                "scale": 0.003974448423832655
            },
            {
                "bitwidth": 5,
                "dtype": "int",
                "is_symmetric": "True",
                "max": 0.26095184683799744,
                "min": -0.2783486247062683,
                "offset": -16,
                "scale": 0.01739678904414177
            },
            {
                "bitwidth": 5,
                "dtype": "int",
                "is_symmetric": "True",
                "max": 0.010863793082535267,
                "min": -0.011588046327233315,
                "offset": -16,
                "scale": 0.0007242528954520822
            },
            {
                "bitwidth": 5,
                "dtype": "int",
                "is_symmetric": "True",
                "max": 0.18474288284778595,
                "min": -0.19705908000469208,
                "offset": -16,
                "scale": 0.012316192500293255
            },
            {
                "bitwidth": 5,
                "dtype": "int",
                "is_symmetric": "True",
                "max": 0.04940909147262573,
                "min": -0.05270303040742874,
                "offset": -16,
                "scale": 0.0032939394004642963
            },
            {
                "bitwidth": 5,
                "dtype": "int",
                "is_symmetric": "True",
                "max": 0.022579459473490715,
                "min": -0.024084756150841713,
                "offset": -16,
                "scale": 0.001505297259427607
            },
            {
                "bitwidth": 5,
                "dtype": "int",
                "is_symmetric": "True",
                "max": 0.05639367178082466,
                "min": -0.06015324965119362,
                "offset": -16,
                "scale": 0.003759578103199601
            },
            {
                "bitwidth": 5,
                "dtype": "int",
                "is_symmetric": "True",
                "max": 0.15605218708515167,
                "min": -0.16645567119121552,
                "offset": -16,
                "scale": 0.01040347944945097
            },
            {
                "bitwidth": 5,
                "dtype": "int",
                "is_symmetric": "True",
                "max": 0.11805596202611923,
                "min": -0.12592636048793793,
                "offset": -16,
                "scale": 0.00787039753049612
            },
            {
                "bitwidth": 5,
                "dtype": "int",
                "is_symmetric": "True",
                "max": 0.00909893587231636,
                "min": -0.009705531410872936,
                "offset": -16,
                "scale": 0.0006065957131795585
            },
            {
                "bitwidth": 5,
                "dtype": "int",
                "is_symmetric": "True",
                "max": 0.03298082947731018,
                "min": -0.03517955169081688,
                "offset": -16,
                "scale": 0.002198721980676055
            },
            {
                "bitwidth": 5,
                "dtype": "int",
                "is_symmetric": "True",
                "max": 0.1145673468708992,
                "min": -0.12220516800880432,
                "offset": -16,
                "scale": 0.00763782300055027
            }
        ],
        "fc.weight": [
            {
                "bitwidth": 5,
                "dtype": "int",
                "is_symmetric": "True",
                "max": 0.2777232527732849,
                "min": -0.29623812437057495,
                "offset": -16,
                "scale": 0.018514882773160934
            },
            {
                "bitwidth": 5,
                "dtype": "int",
                "is_symmetric": "True",
                "max": 0.35006019473075867,
                "min": -0.3733975291252136,
                "offset": -16,
                "scale": 0.02333734557032585
            },
            {
                "bitwidth": 5,
                "dtype": "int",
                "is_symmetric": "True",
                "max": 0.30655616521835327,
                "min": -0.32699325680732727,
                "offset": -16,
                "scale": 0.020437078550457954
            },
            {
                "bitwidth": 5,
                "dtype": "int",
                "is_symmetric": "True",
                "max": 0.27934154868125916,
                "min": -0.29796430468559265,
                "offset": -16,
                "scale": 0.01862276904284954
            },
            {
                "bitwidth": 5,
                "dtype": "int",
                "is_symmetric": "True",
                "max": 0.29290011525154114,
                "min": -0.31242677569389343,
                "offset": -16,
                "scale": 0.01952667348086834
            },
            {
                "bitwidth": 5,
                "dtype": "int",
                "is_symmetric": "True",
                "max": 0.28366145491600037,
                "min": -0.30257222056388855,
                "offset": -16,
                "scale": 0.018910763785243034
            },
            {
                "bitwidth": 5,
                "dtype": "int",
                "is_symmetric": "True",
                "max": 0.32356640696525574,
                "min": -0.34513750672340393,
                "offset": -16,
                "scale": 0.021571094170212746
            },
            {
                "bitwidth": 5,
                "dtype": "int",
                "is_symmetric": "True",
                "max": 0.4153994917869568,
                "min": -0.44309279322624207,
                "offset": -16,
                "scale": 0.02769329957664013
            },
            {
                "bitwidth": 5,
                "dtype": "int",
                "is_symmetric": "True",
                "max": 0.4506339430809021,
                "min": -0.48067620396614075,
                "offset": -16,
                "scale": 0.030042262747883797
            },
            {
                "bitwidth": 5,
                "dtype": "int",
                "is_symmetric": "True",
                "max": 0.3641826808452606,
                "min": -0.38846153020858765,
                "offset": -16,
                "scale": 0.024278845638036728
            },
            {
                "bitwidth": 5,
                "dtype": "int",
                "is_symmetric": "True",
                "max": 0.3222690224647522,
                "min": -0.3437536358833313,
                "offset": -16,
                "scale": 0.021484602242708206
            },
            {
                "bitwidth": 5,
                "dtype": "int",
                "is_symmetric": "True",
                "max": 0.3639419674873352,
                "min": -0.38820475339889526,
                "offset": -16,
                "scale": 0.024262797087430954
            },
            {
                "bitwidth": 5,
                "dtype": "int",
                "is_symmetric": "True",
                "max": 0.36706873774528503,
                "min": -0.391539990901947,
                "offset": -16,
                "scale": 0.02447124943137169
            },
            {
                "bitwidth": 5,
                "dtype": "int",
                "is_symmetric": "True",
                "max": 0.33973461389541626,
                "min": -0.36238357424736023,
                "offset": -16,
                "scale": 0.022648973390460014
            },
            {
                "bitwidth": 5,
                "dtype": "int",
                "is_symmetric": "True",
                "max": 0.40735769271850586,
                "min": -0.4345148801803589,
                "offset": -16,
                "scale": 0.02715718001127243
            },
            {
                "bitwidth": 5,
                "dtype": "int",
                "is_symmetric": "True",
                "max": 0.29301944375038147,
                "min": -0.3125540614128113,
                "offset": -16,
                "scale": 0.019534628838300705
            },
            {
                "bitwidth": 5,
                "dtype": "int",
                "is_symmetric": "True",
                "max": 0.2708979547023773,
                "min": -0.288957804441452,
                "offset": -16,
                "scale": 0.01805986277759075
            },
            {
                "bitwidth": 5,
                "dtype": "int",
                "is_symmetric": "True",
                "max": 0.4619963765144348,
                "min": -0.4927961230278015,
                "offset": -16,
                "scale": 0.030799757689237595
            },
            {
                "bitwidth": 5,
                "dtype": "int",
                "is_symmetric": "True",
                "max": 0.28489014506340027,
                "min": -0.30388280749320984,
                "offset": -16,
                "scale": 0.018992675468325615
            },
            {
                "bitwidth": 5,
                "dtype": "int",
                "is_symmetric": "True",
                "max": 0.31590282917022705,
                "min": -0.336963027715683,
                "offset": -16,
                "scale": 0.021060189232230186
            },
            {
                "bitwidth": 5,
                "dtype": "int",
                "is_symmetric": "True",
                "max": 0.3522800803184509,
                "min": -0.3757654130458832,
                "offset": -16,
                "scale": 0.0234853383153677
            },
            {
                "bitwidth": 5,
                "dtype": "int",
                "is_symmetric": "True",
                "max": 0.28617238998413086,
                "min": -0.3052505552768707,
                "offset": -16,
                "scale": 0.01907815970480442
            },
            {
                "bitwidth": 5,
                "dtype": "int",
                "is_symmetric": "True",
                "max": 0.32141000032424927,
                "min": -0.3428373336791992,
                "offset": -16,
                "scale": 0.02142733335494995
            },
            {
                "bitwidth": 5,
                "dtype": "int",
                "is_symmetric": "True",
                "max": 0.3173612058162689,
                "min": -0.3385186195373535,
                "offset": -16,
                "scale": 0.021157413721084595
            },
            {
                "bitwidth": 5,
                "dtype": "int",
                "is_symmetric": "True",
                "max": 0.3029354214668274,
                "min": -0.32313111424446106,
                "offset": -16,
                "scale": 0.020195694640278816
            },
            {
                "bitwidth": 5,
                "dtype": "int",
                "is_symmetric": "True",
                "max": 0.2997364401817322,
                "min": -0.3197188675403595,
                "offset": -16,
                "scale": 0.01998242922127247
            },
            {
                "bitwidth": 5,
                "dtype": "int",
                "is_symmetric": "True",
                "max": 0.29228416085243225,
                "min": -0.3117697834968567,
                "offset": -16,
                "scale": 0.019485611468553543
            },
            {
                "bitwidth": 5,
                "dtype": "int",
                "is_symmetric": "True",
                "max": 0.3058784306049347,
                "min": -0.32627031207084656,
                "offset": -16,
                "scale": 0.02039189450442791
            },
            {
                "bitwidth": 5,
                "dtype": "int",
                "is_symmetric": "True",
                "max": 0.3306088149547577,
                "min": -0.35264939069747925,
                "offset": -16,
                "scale": 0.022040586918592453
            },
            {
                "bitwidth": 5,
                "dtype": "int",
                "is_symmetric": "True",
                "max": 0.3774476647377014,
                "min": -0.4026108384132385,
                "offset": -16,
                "scale": 0.025163177400827408
            },
            {
                "bitwidth": 5,
                "dtype": "int",
                "is_symmetric": "True",
                "max": 0.28772443532943726,
                "min": -0.3069060742855072,
                "offset": -16,
                "scale": 0.0191816296428442
            },
            {
                "bitwidth": 5,
                "dtype": "int",
                "is_symmetric": "True",
                "max": 0.3336944282054901,
                "min": -0.35594072937965393,
                "offset": -16,
                "scale": 0.02224629558622837
            },
            {
                "bitwidth": 5,
                "dtype": "int",
                "is_symmetric": "True",
                "max": 0.27756959199905396,
                "min": -0.296074241399765,
                "offset": -16,
                "scale": 0.018504640087485313
            },
            {
                "bitwidth": 5,
                "dtype": "int",
                "is_symmetric": "True",
                "max": 0.3371276557445526,
                "min": -0.35960283875465393,
                "offset": -16,
                "scale": 0.02247517742216587
            },
            {
                "bitwidth": 5,
                "dtype": "int",
                "is_symmetric": "True",
                "max": 0.3514969050884247,
                "min": -0.3749300241470337,
                "offset": -16,
                "scale": 0.023433126509189606
            },
            {
                "bitwidth": 5,
                "dtype": "int",
                "is_symmetric": "True",
                "max": 0.3819373548030853,
                "min": -0.40739983320236206,
                "offset": -16,
                "scale": 0.02546248957514763
            },
            {
                "bitwidth": 5,
                "dtype": "int",
                "is_symmetric": "True",
                "max": 0.3253927230834961,
                "min": -0.347085565328598,
                "offset": -16,
                "scale": 0.021692847833037376
            },
            {
                "bitwidth": 5,
                "dtype": "int",
                "is_symmetric": "True",
                "max": 0.31935247778892517,
                "min": -0.34064263105392456,
                "offset": -16,
                "scale": 0.021290164440870285
            },
            {
                "bitwidth": 5,
                "dtype": "int",
                "is_symmetric": "True",
                "max": 0.3027113080024719,
                "min": -0.32289206981658936,
                "offset": -16,
                "scale": 0.020180754363536835
            },
            {
                "bitwidth": 5,
                "dtype": "int",
                "is_symmetric": "True",
                "max": 0.39701342582702637,
                "min": -0.4234809875488281,
                "offset": -16,
                "scale": 0.026467561721801758
            },
            {
                "bitwidth": 5,
                "dtype": "int",
                "is_symmetric": "True",
                "max": 0.3851679563522339,
                "min": -0.4108458161354065,
                "offset": -16,
                "scale": 0.025677863508462906
            },
            {
                "bitwidth": 5,
                "dtype": "int",
                "is_symmetric": "True",
                "max": 0.32715505361557007,
                "min": -0.3489654064178467,
                "offset": -16,
                "scale": 0.021810337901115417
            },
            {
                "bitwidth": 5,
                "dtype": "int",
                "is_symmetric": "True",
                "max": 0.2840886116027832,
                "min": -0.30302783846855164,
                "offset": -16,
                "scale": 0.018939239904284477
            },
            {
                "bitwidth": 5,
                "dtype": "int",
                "is_symmetric": "True",
                "max": 0.3876635730266571,
                "min": -0.4135078191757202,
                "offset": -16,
                "scale": 0.025844238698482513
            },
            {
                "bitwidth": 5,
                "dtype": "int",
                "is_symmetric": "True",
                "max": 0.3229319453239441,
                "min": -0.34446075558662415,
                "offset": -16,
                "scale": 0.02152879722416401
            },
            {
                "bitwidth": 5,
                "dtype": "int",
                "is_symmetric": "True",
                "max": 0.36771315336227417,
                "min": -0.3922273516654968,
                "offset": -16,
                "scale": 0.02451420947909355
            },
            {
                "bitwidth": 5,
                "dtype": "int",
                "is_symmetric": "True",
                "max": 0.35748398303985596,
                "min": -0.38131624460220337,
                "offset": -16,
                "scale": 0.02383226528763771
            },
            {
                "bitwidth": 5,
                "dtype": "int",
                "is_symmetric": "True",
                "max": 0.2690640985965729,
                "min": -0.28700169920921326,
                "offset": -16,
                "scale": 0.01793760620057583
            },
            {
                "bitwidth": 5,
                "dtype": "int",
                "is_symmetric": "True",
                "max": 0.3154689073562622,
                "min": -0.3365001678466797,
                "offset": -16,
                "scale": 0.02103126049041748
            },
            {
                "bitwidth": 5,
                "dtype": "int",
                "is_symmetric": "True",
                "max": 0.39410272240638733,
                "min": -0.4203762412071228,
                "offset": -16,
                "scale": 0.026273515075445175
            },
            {
                "bitwidth": 5,
                "dtype": "int",
                "is_symmetric": "True",
                "max": 0.34826746582984924,
                "min": -0.37148529291152954,
                "offset": -16,
                "scale": 0.023217830806970596
            },
            {
                "bitwidth": 5,
                "dtype": "int",
                "is_symmetric": "True",
                "max": 0.49104323983192444,
                "min": -0.5237794518470764,
                "offset": -16,
                "scale": 0.032736215740442276
            },
            {
                "bitwidth": 5,
                "dtype": "int",
                "is_symmetric": "True",
                "max": 0.3272209167480469,
                "min": -0.3490356504917145,
                "offset": -16,
                "scale": 0.021814728155732155
            },
            {
                "bitwidth": 5,
                "dtype": "int",
                "is_symmetric": "True",
                "max": 0.3432411551475525,
                "min": -0.36612388491630554,
                "offset": -16,
                "scale": 0.022882742807269096
            },
            {
                "bitwidth": 5,
                "dtype": "int",
                "is_symmetric": "True",
                "max": 0.33806896209716797,
                "min": -0.3606069087982178,
                "offset": -16,
                "scale": 0.02253793179988861
            },
            {
                "bitwidth": 5,
                "dtype": "int",
                "is_symmetric": "True",
                "max": 0.3712064027786255,
                "min": -0.395953506231308,
                "offset": -16,
                "scale": 0.02474709413945675
            },
            {
                "bitwidth": 5,
                "dtype": "int",
                "is_symmetric": "True",
                "max": 0.3953394889831543,
                "min": -0.42169544100761414,
                "offset": -16,
                "scale": 0.026355965062975883
            },
            {
                "bitwidth": 5,
                "dtype": "int",
                "is_symmetric": "True",
                "max": 0.4382053315639496,
                "min": -0.4674190282821655,
                "offset": -16,
                "scale": 0.029213689267635345
            },
            {
                "bitwidth": 5,
                "dtype": "int",
                "is_symmetric": "True",
                "max": 0.3515823781490326,
                "min": -0.37502118945121765,
                "offset": -16,
                "scale": 0.023438824340701103
            },
            {
                "bitwidth": 5,
                "dtype": "int",
                "is_symmetric": "True",
                "max": 0.3108361065387726,
                "min": -0.3315585255622864,
                "offset": -16,
                "scale": 0.0207224078476429
            },
            {
                "bitwidth": 5,
                "dtype": "int",
                "is_symmetric": "True",
                "max": 0.3770486116409302,
                "min": -0.4021851718425751,
                "offset": -16,
                "scale": 0.025136573240160942
            },
            {
                "bitwidth": 5,
                "dtype": "int",
                "is_symmetric": "True",
                "max": 0.5737133026123047,
                "min": -0.6119608879089355,
                "offset": -16,
                "scale": 0.03824755549430847
            },
            {
                "bitwidth": 5,
                "dtype": "int",
                "is_symmetric": "True",
                "max": 0.4696250259876251,
                "min": -0.5009333491325378,
                "offset": -16,
                "scale": 0.031308334320783615
            },
            {
                "bitwidth": 5,
                "dtype": "int",
                "is_symmetric": "True",
                "max": 0.3068386912345886,
                "min": -0.32729461789131165,
                "offset": -16,
                "scale": 0.020455913618206978
            },
            {
                "bitwidth": 5,
                "dtype": "int",
                "is_symmetric": "True",
                "max": 0.4624273478984833,
                "min": -0.4932558238506317,
                "offset": -16,
                "scale": 0.030828488990664482
            },
            {
                "bitwidth": 5,
                "dtype": "int",
                "is_symmetric": "True",
                "max": 0.3260074257850647,
                "min": -0.3477412462234497,
                "offset": -16,
                "scale": 0.021733827888965607
            },
            {
                "bitwidth": 5,
                "dtype": "int",
                "is_symmetric": "True",
                "max": 0.4078196883201599,
                "min": -0.43500766158103943,
                "offset": -16,
                "scale": 0.027187978848814964
            },
            {
                "bitwidth": 5,
                "dtype": "int",
                "is_symmetric": "True",
                "max": 0.3745720386505127,
                "min": -0.39954349398612976,
                "offset": -16,
                "scale": 0.02497146837413311
            },
            {
                "bitwidth": 5,
                "dtype": "int",
                "is_symmetric": "True",
                "max": 0.40287232398986816,
                "min": -0.42973047494888306,
                "offset": -16,
                "scale": 0.02685815468430519
            },
            {
                "bitwidth": 5,
                "dtype": "int",
                "is_symmetric": "True",
                "max": 0.36466267704963684,
                "min": -0.38897353410720825,
                "offset": -16,
                "scale": 0.024310845881700516
            },
            {
                "bitwidth": 5,
                "dtype": "int",
                "is_symmetric": "True",
                "max": 0.3800757825374603,
                "min": -0.4054141640663147,
                "offset": -16,
                "scale": 0.02533838525414467
            },
            {
                "bitwidth": 5,
                "dtype": "int",
                "is_symmetric": "True",
                "max": 0.28726038336753845,
                "min": -0.30641108751296997,
                "offset": -16,
                "scale": 0.019150692969560623
            },
            {
                "bitwidth": 5,
                "dtype": "int",
                "is_symmetric": "True",
                "max": 0.5452106595039368,
                "min": -0.5815580487251282,
                "offset": -16,
                "scale": 0.03634737804532051
            },
            {
                "bitwidth": 5,
                "dtype": "int",
                "is_symmetric": "True",
                "max": 0.5405585765838623,
                "min": -0.5765957832336426,
                "offset": -16,
                "scale": 0.03603723645210266
            },
            {
                "bitwidth": 5,
                "dtype": "int",
                "is_symmetric": "True",
                "max": 0.6093043088912964,
                "min": -0.6499245762825012,
                "offset": -16,
                "scale": 0.040620286017656326
            },
            {
                "bitwidth": 5,
                "dtype": "int",
                "is_symmetric": "True",
                "max": 0.39447522163391113,
                "min": -0.42077356576919556,
                "offset": -16,
                "scale": 0.026298347860574722
            },
            {
                "bitwidth": 5,
                "dtype": "int",
                "is_symmetric": "True",
                "max": 0.37682271003723145,
                "min": -0.40194422006607056,
                "offset": -16,
                "scale": 0.02512151375412941
            },
            {
                "bitwidth": 5,
                "dtype": "int",
                "is_symmetric": "True",
                "max": 0.26082536578178406,
                "min": -0.2782137095928192,
                "offset": -16,
                "scale": 0.0173883568495512
            },
            {
                "bitwidth": 5,
                "dtype": "int",
                "is_symmetric": "True",
                "max": 0.331783652305603,
                "min": -0.35390257835388184,
                "offset": -16,
                "scale": 0.022118911147117615
            },
            {
                "bitwidth": 5,
                "dtype": "int",
                "is_symmetric": "True",
                "max": 0.3883771598339081,
                "min": -0.41426897048950195,
                "offset": -16,
                "scale": 0.025891810655593872
            },
            {
                "bitwidth": 5,
                "dtype": "int",
                "is_symmetric": "True",
                "max": 0.34110140800476074,
                "min": -0.3638415038585663,
                "offset": -16,
                "scale": 0.022740093991160393
            },
            {
                "bitwidth": 5,
                "dtype": "int",
                "is_symmetric": "True",
                "max": 0.3794836401939392,
                "min": -0.40478256344795227,
                "offset": -16,
                "scale": 0.025298910215497017
            },
            {
                "bitwidth": 5,
                "dtype": "int",
                "is_symmetric": "True",
                "max": 0.3556061387062073,
                "min": -0.37931323051452637,
                "offset": -16,
                "scale": 0.023707076907157898
            },
            {
                "bitwidth": 5,
                "dtype": "int",
                "is_symmetric": "True",
                "max": 0.3164249360561371,
                "min": -0.33751994371414185,
                "offset": -16,
                "scale": 0.021094996482133865
            },
            {
                "bitwidth": 5,
                "dtype": "int",
                "is_symmetric": "True",
                "max": 0.5770475268363953,
                "min": -0.6155173778533936,
                "offset": -16,
                "scale": 0.0384698361158371
            },
            {
                "bitwidth": 5,
                "dtype": "int",
                "is_symmetric": "True",
                "max": 0.27494993805885315,
                "min": -0.2932799458503723,
                "offset": -16,
                "scale": 0.01832999661564827
            },
            {
                "bitwidth": 5,
                "dtype": "int",
                "is_symmetric": "True",
                "max": 0.3236501216888428,
                "min": -0.34522679448127747,
                "offset": -16,
                "scale": 0.02157667465507984
            },
            {
                "bitwidth": 5,
                "dtype": "int",
                "is_symmetric": "True",
                "max": 0.35986000299453735,
                "min": -0.38385066390037537,
                "offset": -16,
                "scale": 0.02399066649377346
            },
            {
                "bitwidth": 5,
                "dtype": "int",
                "is_symmetric": "True",
                "max": 0.2675398588180542,
                "min": -0.28537583351135254,
                "offset": -16,
                "scale": 0.017835989594459534
            },
            {
                "bitwidth": 5,
                "dtype": "int",
                "is_symmetric": "True",
                "max": 0.36823299527168274,
                "min": -0.3927818536758423,
                "offset": -16,
                "scale": 0.024548865854740143
            },
            {
                "bitwidth": 5,
                "dtype": "int",
                "is_symmetric": "True",
                "max": 0.34868690371513367,
                "min": -0.3719326853752136,
                "offset": -16,
                "scale": 0.02324579283595085
            },
            {
                "bitwidth": 5,
                "dtype": "int",
                "is_symmetric": "True",
                "max": 0.2814725637435913,
                "min": -0.30023741722106934,
                "offset": -16,
                "scale": 0.018764838576316833
            },
            {
                "bitwidth": 5,
                "dtype": "int",
                "is_symmetric": "True",
                "max": 0.32354745268821716,
                "min": -0.3451172709465027,
                "offset": -16,
                "scale": 0.021569829434156418
            },
            {
                "bitwidth": 5,
                "dtype": "int",
                "is_symmetric": "True",
                "max": 0.28848135471343994,
                "min": -0.30771344900131226,
                "offset": -16,
                "scale": 0.019232090562582016
            },
            {
                "bitwidth": 5,
                "dtype": "int",
                "is_symmetric": "True",
                "max": 0.42130446434020996,
                "min": -0.4493914246559143,
                "offset": -16,
                "scale": 0.028086964040994644
            },
            {
                "bitwidth": 5,
                "dtype": "int",
                "is_symmetric": "True",
                "max": 0.2912491261959076,
                "min": -0.31066572666168213,
                "offset": -16,
                "scale": 0.019416607916355133
            },
            {
                "bitwidth": 5,
                "dtype": "int",
                "is_symmetric": "True",
                "max": 0.2674996256828308,
                "min": -0.28533294796943665,
                "offset": -16,
                "scale": 0.01783330924808979
            },
            {
                "bitwidth": 5,
                "dtype": "int",
                "is_symmetric": "True",
                "max": 0.4840228855609894,
                "min": -0.516291081905365,
                "offset": -16,
                "scale": 0.03226819261908531
            },
            {
                "bitwidth": 5,
                "dtype": "int",
                "is_symmetric": "True",
                "max": 0.3364708423614502,
                "min": -0.358902245759964,
                "offset": -16,
                "scale": 0.02243139035999775
            },
            {
                "bitwidth": 5,
                "dtype": "int",
                "is_symmetric": "True",
                "max": 0.3845154047012329,
                "min": -0.4101497530937195,
                "offset": -16,
                "scale": 0.025634359568357468
            },
            {
                "bitwidth": 5,
                "dtype": "int",
                "is_symmetric": "True",
                "max": 0.4716905951499939,
                "min": -0.5031366348266602,
                "offset": -16,
                "scale": 0.03144603967666626
            },
            {
                "bitwidth": 5,
                "dtype": "int",
                "is_symmetric": "True",
                "max": 0.3827939033508301,
                "min": -0.408313512802124,
                "offset": -16,
                "scale": 0.02551959455013275
            },
            {
                "bitwidth": 5,
                "dtype": "int",
                "is_symmetric": "True",
                "max": 0.3022931218147278,
                "min": -0.32244598865509033,
                "offset": -16,
                "scale": 0.020152874290943146
            },
            {
                "bitwidth": 5,
                "dtype": "int",
                "is_symmetric": "True",
                "max": 0.3290572762489319,
                "min": -0.35099443793296814,
                "offset": -16,
                "scale": 0.02193715237081051
            },
            {
                "bitwidth": 5,
                "dtype": "int",
                "is_symmetric": "True",
                "max": 0.29852548241615295,
                "min": -0.318427175283432,
                "offset": -16,
                "scale": 0.0199016984552145
            },
            {
                "bitwidth": 5,
                "dtype": "int",
                "is_symmetric": "True",
                "max": 0.3384615182876587,
                "min": -0.3610256314277649,
                "offset": -16,
                "scale": 0.022564101964235306
            },
            {
                "bitwidth": 5,
                "dtype": "int",
                "is_symmetric": "True",
                "max": 0.32614490389823914,
                "min": -0.34788790345191956,
                "offset": -16,
                "scale": 0.021742993965744972
            },
            {
                "bitwidth": 5,
                "dtype": "int",
                "is_symmetric": "True",
                "max": 0.45083150267601013,
                "min": -0.48088693618774414,
                "offset": -16,
                "scale": 0.03005543351173401
            },
            {
                "bitwidth": 5,
                "dtype": "int",
                "is_symmetric": "True",
                "max": 0.4256216883659363,
                "min": -0.453996479511261,
                "offset": -16,
                "scale": 0.02837477996945381
            },
            {
                "bitwidth": 5,
                "dtype": "int",
                "is_symmetric": "True",
                "max": 0.39472633600234985,
                "min": -0.42104142904281616,
                "offset": -16,
                "scale": 0.02631508931517601
            },
            {
                "bitwidth": 5,
                "dtype": "int",
                "is_symmetric": "True",
                "max": 0.31801319122314453,
                "min": -0.3392140567302704,
                "offset": -16,
                "scale": 0.0212008785456419
            },
            {
                "bitwidth": 5,
                "dtype": "int",
                "is_symmetric": "True",
                "max": 0.40591931343078613,
                "min": -0.43298059701919556,
                "offset": -16,
                "scale": 0.027061287313699722
            },
            {
                "bitwidth": 5,
                "dtype": "int",
                "is_symmetric": "True",
                "max": 0.39716625213623047,
                "min": -0.4236440062522888,
                "offset": -16,
                "scale": 0.02647775039076805
            },
            {
                "bitwidth": 5,
                "dtype": "int",
                "is_symmetric": "True",
                "max": 0.2589699923992157,
                "min": -0.2762346565723419,
                "offset": -16,
                "scale": 0.01726466603577137
            },
            {
                "bitwidth": 5,
                "dtype": "int",
                "is_symmetric": "True",
                "max": 0.3851960301399231,
                "min": -0.41087576746940613,
                "offset": -16,
                "scale": 0.025679735466837883
            },
            {
                "bitwidth": 5,
                "dtype": "int",
                "is_symmetric": "True",
                "max": 0.32746267318725586,
                "min": -0.3492935299873352,
                "offset": -16,
                "scale": 0.02183084562420845
            },
            {
                "bitwidth": 5,
                "dtype": "int",
                "is_symmetric": "True",
                "max": 0.30990898609161377,
                "min": -0.3305695950984955,
                "offset": -16,
                "scale": 0.020660599693655968
            },
            {
                "bitwidth": 5,
                "dtype": "int",
                "is_symmetric": "True",
                "max": 0.3360002338886261,
                "min": -0.35840025544166565,
                "offset": -16,
                "scale": 0.022400015965104103
            },
            {
                "bitwidth": 5,
                "dtype": "int",
                "is_symmetric": "True",
                "max": 0.37308555841445923,
                "min": -0.3979579210281372,
                "offset": -16,
                "scale": 0.024872370064258575
            },
            {
                "bitwidth": 5,
                "dtype": "int",
                "is_symmetric": "True",
                "max": 0.40283024311065674,
                "min": -0.4296855926513672,
                "offset": -16,
                "scale": 0.02685534954071045
            },
            {
                "bitwidth": 5,
                "dtype": "int",
                "is_symmetric": "True",
                "max": 0.30213603377342224,
                "min": -0.3222784399986267,
                "offset": -16,
                "scale": 0.02014240249991417
            },
            {
                "bitwidth": 5,
                "dtype": "int",
                "is_symmetric": "True",
                "max": 0.3639536499977112,
                "min": -0.3882172405719757,
                "offset": -16,
                "scale": 0.024263577535748482
            },
            {
                "bitwidth": 5,
                "dtype": "int",
                "is_symmetric": "True",
                "max": 0.331967830657959,
                "min": -0.35409900546073914,
                "offset": -16,
                "scale": 0.022131187841296196
            },
            {
                "bitwidth": 5,
                "dtype": "int",
                "is_symmetric": "True",
                "max": 0.37855279445648193,
                "min": -0.4037896394729614,
                "offset": -16,
                "scale": 0.02523685246706009
            },
            {
                "bitwidth": 5,
                "dtype": "int",
                "is_symmetric": "True",
                "max": 0.32794782519340515,
                "min": -0.34981101751327515,
                "offset": -16,
                "scale": 0.021863188594579697
            },
            {
                "bitwidth": 5,
                "dtype": "int",
                "is_symmetric": "True",
                "max": 0.3259326219558716,
                "min": -0.34766146540641785,
                "offset": -16,
                "scale": 0.021728841587901115
            },
            {
                "bitwidth": 5,
                "dtype": "int",
                "is_symmetric": "True",
                "max": 0.33170944452285767,
                "min": -0.3538234233856201,
                "offset": -16,
                "scale": 0.022113963961601257
            },
            {
                "bitwidth": 5,
                "dtype": "int",
                "is_symmetric": "True",
                "max": 0.32539767026901245,
                "min": -0.34709084033966064,
                "offset": -16,
                "scale": 0.02169317752122879
            },
            {
                "bitwidth": 5,
                "dtype": "int",
                "is_symmetric": "True",
                "max": 0.3122544586658478,
                "min": -0.33307141065597534,
                "offset": -16,
                "scale": 0.02081696316599846
            },
            {
                "bitwidth": 5,
                "dtype": "int",
                "is_symmetric": "True",
                "max": 0.3848533630371094,
                "min": -0.41051024198532104,
                "offset": -16,
                "scale": 0.025656890124082565
            },
            {
                "bitwidth": 5,
                "dtype": "int",
                "is_symmetric": "True",
                "max": 0.3866775631904602,
                "min": -0.41245606541633606,
                "offset": -16,
                "scale": 0.025778504088521004
            },
            {
                "bitwidth": 5,
                "dtype": "int",
                "is_symmetric": "True",
                "max": 0.29967018961906433,
                "min": -0.31964820623397827,
                "offset": -16,
                "scale": 0.019978012889623642
            },
            {
                "bitwidth": 5,
                "dtype": "int",
                "is_symmetric": "True",
                "max": 0.29971185326576233,
                "min": -0.3196926414966583,
                "offset": -16,
                "scale": 0.019980790093541145
            },
            {
                "bitwidth": 5,
                "dtype": "int",
                "is_symmetric": "True",
                "max": 0.28169557452201843,
                "min": -0.30047526955604553,
                "offset": -16,
                "scale": 0.018779704347252846
            },
            {
                "bitwidth": 5,
                "dtype": "int",
                "is_symmetric": "True",
                "max": 0.3038986325263977,
                "min": -0.32415854930877686,
                "offset": -16,
                "scale": 0.020259909331798553
            },
            {
                "bitwidth": 5,
                "dtype": "int",
                "is_symmetric": "True",
                "max": 0.29741740226745605,
                "min": -0.317245215177536,
                "offset": -16,
                "scale": 0.019827825948596
            },
            {
                "bitwidth": 5,
                "dtype": "int",
                "is_symmetric": "True",
                "max": 0.3366527259349823,
                "min": -0.3590962290763855,
                "offset": -16,
                "scale": 0.022443514317274094
            },
            {
                "bitwidth": 5,
                "dtype": "int",
                "is_symmetric": "True",
                "max": 0.37029311060905457,
                "min": -0.394979327917099,
                "offset": -16,
                "scale": 0.024686207994818687
            },
            {
                "bitwidth": 5,
                "dtype": "int",
                "is_symmetric": "True",
                "max": 0.3499297499656677,
                "min": -0.37325841188430786,
                "offset": -16,
                "scale": 0.02332865074276924
            },
            {
                "bitwidth": 5,
                "dtype": "int",
                "is_symmetric": "True",
                "max": 0.29279524087905884,
                "min": -0.3123149275779724,
                "offset": -16,
                "scale": 0.019519682973623276
            },
            {
                "bitwidth": 5,
                "dtype": "int",
                "is_symmetric": "True",
                "max": 0.3364517092704773,
                "min": -0.3588818311691284,
                "offset": -16,
                "scale": 0.022430114448070526
            },
            {
                "bitwidth": 5,
                "dtype": "int",
                "is_symmetric": "True",
                "max": 0.3673214316368103,
                "min": -0.39180952310562134,
                "offset": -16,
                "scale": 0.024488095194101334
            },
            {
                "bitwidth": 5,
                "dtype": "int",
                "is_symmetric": "True",
                "max": 0.4342942237854004,
                "min": -0.4632471799850464,
                "offset": -16,
                "scale": 0.0289529487490654
            },
            {
                "bitwidth": 5,
                "dtype": "int",
                "is_symmetric": "True",
                "max": 0.3088856041431427,
                "min": -0.3294779658317566,
                "offset": -16,
                "scale": 0.020592372864484787
            },
            {
                "bitwidth": 5,
                "dtype": "int",
                "is_symmetric": "True",
                "max": 0.3793281316757202,
                "min": -0.40461668372154236,
                "offset": -16,
                "scale": 0.025288542732596397
            },
            {
                "bitwidth": 5,
                "dtype": "int",
                "is_symmetric": "True",
                "max": 0.3271670937538147,
                "min": -0.3489782214164734,
                "offset": -16,
                "scale": 0.021811138838529587
            },
            {
                "bitwidth": 5,
                "dtype": "int",
                "is_symmetric": "True",
                "max": 0.36906713247299194,
                "min": -0.39367160201072693,
                "offset": -16,
                "scale": 0.024604475125670433
            },
            {
                "bitwidth": 5,
                "dtype": "int",
                "is_symmetric": "True",
                "max": 0.3403351604938507,
                "min": -0.36302417516708374,
                "offset": -16,
                "scale": 0.022689010947942734
            },
            {
                "bitwidth": 5,
                "dtype": "int",
                "is_symmetric": "True",
                "max": 0.406844824552536,
                "min": -0.43396779894828796,
                "offset": -16,
                "scale": 0.027122987434267998
            },
            {
                "bitwidth": 5,
                "dtype": "int",
                "is_symmetric": "True",
                "max": 0.29662370681762695,
                "min": -0.31639862060546875,
                "offset": -16,
                "scale": 0.019774913787841797
            },
            {
                "bitwidth": 5,
                "dtype": "int",
                "is_symmetric": "True",
                "max": 0.2924864888191223,
                "min": -0.311985582113266,
                "offset": -16,
                "scale": 0.019499098882079124
            },
            {
                "bitwidth": 5,
                "dtype": "int",
                "is_symmetric": "True",
                "max": 0.24761390686035156,
                "min": -0.26412150263786316,
                "offset": -16,
                "scale": 0.016507593914866447
            },
            {
                "bitwidth": 5,
                "dtype": "int",
                "is_symmetric": "True",
                "max": 0.31912022829055786,
                "min": -0.34039491415023804,
                "offset": -16,
                "scale": 0.021274682134389877
            },
            {
                "bitwidth": 5,
                "dtype": "int",
                "is_symmetric": "True",
                "max": 0.29312756657600403,
                "min": -0.31266939640045166,
                "offset": -16,
                "scale": 0.01954183727502823
            },
            {
                "bitwidth": 5,
                "dtype": "int",
                "is_symmetric": "True",
                "max": 0.2828918397426605,
                "min": -0.3017512857913971,
                "offset": -16,
                "scale": 0.01885945536196232
            },
            {
                "bitwidth": 5,
                "dtype": "int",
                "is_symmetric": "True",
                "max": 0.23583805561065674,
                "min": -0.25156059861183167,
                "offset": -16,
                "scale": 0.01572253741323948
            },
            {
                "bitwidth": 5,
                "dtype": "int",
                "is_symmetric": "True",
                "max": 0.33423852920532227,
                "min": -0.3565210998058319,
                "offset": -16,
                "scale": 0.022282568737864494
            },
            {
                "bitwidth": 5,
                "dtype": "int",
                "is_symmetric": "True",
                "max": 0.33977586030960083,
                "min": -0.36242759227752686,
                "offset": -16,
                "scale": 0.02265172451734543
            },
            {
                "bitwidth": 5,
                "dtype": "int",
                "is_symmetric": "True",
                "max": 0.2818996012210846,
                "min": -0.30069291591644287,
                "offset": -16,
                "scale": 0.01879330724477768
            },
            {
                "bitwidth": 5,
                "dtype": "int",
                "is_symmetric": "True",
                "max": 0.27062952518463135,
                "min": -0.28867149353027344,
                "offset": -16,
                "scale": 0.01804196834564209
            },
            {
                "bitwidth": 5,
                "dtype": "int",
                "is_symmetric": "True",
                "max": 0.29857295751571655,
                "min": -0.3184778094291687,
                "offset": -16,
                "scale": 0.019904863089323044
            },
            {
                "bitwidth": 5,
                "dtype": "int",
                "is_symmetric": "True",
                "max": 0.2780980169773102,
                "min": -0.2966378927230835,
                "offset": -16,
                "scale": 0.01853986829519272
            },
            {
                "bitwidth": 5,
                "dtype": "int",
                "is_symmetric": "True",
                "max": 0.27812454104423523,
                "min": -0.2966661751270294,
                "offset": -16,
                "scale": 0.01854163594543934
            },
            {
                "bitwidth": 5,
                "dtype": "int",
                "is_symmetric": "True",
                "max": 0.2535575032234192,
                "min": -0.2704613208770752,
                "offset": -16,
                "scale": 0.0169038325548172
            },
            {
                "bitwidth": 5,
                "dtype": "int",
                "is_symmetric": "True",
                "max": 0.4558556377887726,
                "min": -0.4862460196018219,
                "offset": -16,
                "scale": 0.03039037622511387
            },
            {
                "bitwidth": 5,
                "dtype": "int",
                "is_symmetric": "True",
                "max": 0.31641048192977905,
                "min": -0.337504506111145,
                "offset": -16,
                "scale": 0.021094031631946564
            },
            {
                "bitwidth": 5,
                "dtype": "int",
                "is_symmetric": "True",
                "max": 0.2881864011287689,
                "min": -0.30739882588386536,
                "offset": -16,
                "scale": 0.019212426617741585
            },
            {
                "bitwidth": 5,
                "dtype": "int",
                "is_symmetric": "True",
                "max": 0.29101836681365967,
                "min": -0.31041958928108215,
                "offset": -16,
                "scale": 0.019401224330067635
            },
            {
                "bitwidth": 5,
                "dtype": "int",
                "is_symmetric": "True",
                "max": 0.2712825536727905,
                "min": -0.28936806321144104,
                "offset": -16,
                "scale": 0.018085503950715065
            },
            {
                "bitwidth": 5,
                "dtype": "int",
                "is_symmetric": "True",
                "max": 0.3012557923793793,
                "min": -0.32133951783180237,
                "offset": -16,
                "scale": 0.020083719864487648
            },
            {
                "bitwidth": 5,
                "dtype": "int",
                "is_symmetric": "True",
                "max": 0.31121498346328735,
                "min": -0.3319626450538635,
                "offset": -16,
                "scale": 0.02074766531586647
            },
            {
                "bitwidth": 5,
                "dtype": "int",
                "is_symmetric": "True",
                "max": 0.2779536545276642,
                "min": -0.2964839041233063,
                "offset": -16,
                "scale": 0.018530244007706642
            },
            {
                "bitwidth": 5,
                "dtype": "int",
                "is_symmetric": "True",
                "max": 0.25074681639671326,
                "min": -0.2674632668495178,
                "offset": -16,
                "scale": 0.016716454178094864
            },
            {
                "bitwidth": 5,
                "dtype": "int",
                "is_symmetric": "True",
                "max": 0.3279258608818054,
                "min": -0.3497875928878784,
                "offset": -16,
                "scale": 0.0218617245554924
            },
            {
                "bitwidth": 5,
                "dtype": "int",
                "is_symmetric": "True",
                "max": 0.3951941728591919,
                "min": -0.42154043912887573,
                "offset": -16,
                "scale": 0.026346277445554733
            },
            {
                "bitwidth": 5,
                "dtype": "int",
                "is_symmetric": "True",
                "max": 0.2625545859336853,
                "min": -0.28005823493003845,
                "offset": -16,
                "scale": 0.017503639683127403
            },
            {
                "bitwidth": 5,
                "dtype": "int",
                "is_symmetric": "True",
                "max": 0.2839447855949402,
                "min": -0.30287444591522217,
                "offset": -16,
                "scale": 0.018929652869701385
            },
            {
                "bitwidth": 5,
                "dtype": "int",
                "is_symmetric": "True",
                "max": 0.30570071935653687,
                "min": -0.3260807693004608,
                "offset": -16,
                "scale": 0.0203800480812788
            },
            {
                "bitwidth": 5,
                "dtype": "int",
                "is_symmetric": "True",
                "max": 0.2746030390262604,
                "min": -0.2929099202156067,
                "offset": -16,
                "scale": 0.018306870013475418
            },
            {
                "bitwidth": 5,
                "dtype": "int",
                "is_symmetric": "True",
                "max": 0.28409692645072937,
                "min": -0.30303671956062317,
                "offset": -16,
                "scale": 0.018939794972538948
            },
            {
                "bitwidth": 5,
                "dtype": "int",
                "is_symmetric": "True",
                "max": 0.2859607934951782,
                "min": -0.3050248324871063,
                "offset": -16,
                "scale": 0.019064052030444145
            },
            {
                "bitwidth": 5,
                "dtype": "int",
                "is_symmetric": "True",
                "max": 0.31723520159721375,
                "min": -0.338384211063385,
                "offset": -16,
                "scale": 0.021149013191461563
            },
            {
                "bitwidth": 5,
                "dtype": "int",
                "is_symmetric": "True",
                "max": 0.29350629448890686,
                "min": -0.31307336688041687,
                "offset": -16,
                "scale": 0.019567085430026054
            },
            {
                "bitwidth": 5,
                "dtype": "int",
                "is_symmetric": "True",
                "max": 0.3383347988128662,
                "min": -0.3608904480934143,
                "offset": -16,
                "scale": 0.022555653005838394
            },
            {
                "bitwidth": 5,
                "dtype": "int",
                "is_symmetric": "True",
                "max": 0.33608680963516235,
                "min": -0.3584926128387451,
                "offset": -16,
                "scale": 0.02240578830242157
            },
            {
                "bitwidth": 5,
                "dtype": "int",
                "is_symmetric": "True",
                "max": 0.3012705445289612,
                "min": -0.32135525345802307,
                "offset": -16,
                "scale": 0.020084703341126442
            },
            {
                "bitwidth": 5,
                "dtype": "int",
                "is_symmetric": "True",
                "max": 0.28666216135025024,
                "min": -0.30577296018600464,
                "offset": -16,
                "scale": 0.01911081001162529
            },
            {
                "bitwidth": 5,
                "dtype": "int",
                "is_symmetric": "True",
                "max": 0.3024275302886963,
                "min": -0.32258936762809753,
                "offset": -16,
                "scale": 0.020161835476756096
            },
            {
                "bitwidth": 5,
                "dtype": "int",
                "is_symmetric": "True",
                "max": 0.250331312417984,
                "min": -0.2670200765132904,
                "offset": -16,
                "scale": 0.01668875478208065
            },
            {
                "bitwidth": 5,
                "dtype": "int",
                "is_symmetric": "True",
                "max": 0.3167130947113037,
                "min": -0.33782729506492615,
                "offset": -16,
                "scale": 0.021114205941557884
            },
            {
                "bitwidth": 5,
                "dtype": "int",
                "is_symmetric": "True",
                "max": 0.30622056126594543,
                "min": -0.3266352713108063,
                "offset": -16,
                "scale": 0.020414704456925392
            },
            {
                "bitwidth": 5,
                "dtype": "int",
                "is_symmetric": "True",
                "max": 0.27533164620399475,
                "min": -0.2936870753765106,
                "offset": -16,
                "scale": 0.018355442211031914
            },
            {
                "bitwidth": 5,
                "dtype": "int",
                "is_symmetric": "True",
                "max": 0.26993903517723083,
                "min": -0.28793495893478394,
                "offset": -16,
                "scale": 0.017995934933423996
            },
            {
                "bitwidth": 5,
                "dtype": "int",
                "is_symmetric": "True",
                "max": 0.29852214455604553,
                "min": -0.31842362880706787,
                "offset": -16,
                "scale": 0.019901476800441742
            },
            {
                "bitwidth": 5,
                "dtype": "int",
                "is_symmetric": "True",
                "max": 0.27185678482055664,
                "min": -0.28998056054115295,
                "offset": -16,
                "scale": 0.01812378503382206
            },
            {
                "bitwidth": 5,
                "dtype": "int",
                "is_symmetric": "True",
                "max": 0.32017362117767334,
                "min": -0.3415185213088989,
                "offset": -16,
                "scale": 0.021344907581806183
            },
            {
                "bitwidth": 5,
                "dtype": "int",
                "is_symmetric": "True",
                "max": 0.2933782637119293,
                "min": -0.31293681263923645,
                "offset": -16,
                "scale": 0.019558550789952278
            },
            {
                "bitwidth": 5,
                "dtype": "int",
                "is_symmetric": "True",
                "max": 0.29160985350608826,
                "min": -0.31105050444602966,
                "offset": -16,
                "scale": 0.019440656527876854
            },
            {
                "bitwidth": 5,
                "dtype": "int",
                "is_symmetric": "True",
                "max": 0.314801961183548,
                "min": -0.335788756608963,
                "offset": -16,
                "scale": 0.02098679728806019
            },
            {
                "bitwidth": 5,
                "dtype": "int",
                "is_symmetric": "True",
                "max": 0.26402735710144043,
                "min": -0.28162917494773865,
                "offset": -16,
                "scale": 0.017601823434233665
            },
            {
                "bitwidth": 5,
                "dtype": "int",
                "is_symmetric": "True",
                "max": 0.2438441514968872,
                "min": -0.26010042428970337,
                "offset": -16,
                "scale": 0.01625627651810646
            },
            {
                "bitwidth": 5,
                "dtype": "int",
                "is_symmetric": "True",
                "max": 0.30167126655578613,
                "min": -0.3217826783657074,
                "offset": -16,
                "scale": 0.020111417397856712
            },
            {
                "bitwidth": 5,
                "dtype": "int",
                "is_symmetric": "True",
                "max": 0.32092800736427307,
                "min": -0.3423232138156891,
                "offset": -16,
                "scale": 0.021395200863480568
            },
            {
                "bitwidth": 5,
                "dtype": "int",
                "is_symmetric": "True",
                "max": 0.24239720404148102,
                "min": -0.2585570216178894,
                "offset": -16,
                "scale": 0.016159813851118088
            },
            {
                "bitwidth": 5,
                "dtype": "int",
                "is_symmetric": "True",
                "max": 0.29219359159469604,
                "min": -0.3116731643676758,
                "offset": -16,
                "scale": 0.019479572772979736
            },
            {
                "bitwidth": 5,
                "dtype": "int",
                "is_symmetric": "True",
                "max": 0.2408313900232315,
                "min": -0.2568868100643158,
                "offset": -16,
                "scale": 0.016055425629019737
            },
            {
                "bitwidth": 5,
                "dtype": "int",
                "is_symmetric": "True",
                "max": 0.30020397901535034,
                "min": -0.3202175796031952,
                "offset": -16,
                "scale": 0.0200135987251997
            },
            {
                "bitwidth": 5,
                "dtype": "int",
                "is_symmetric": "True",
                "max": 0.27954480051994324,
                "min": -0.29818111658096313,
                "offset": -16,
                "scale": 0.018636319786310196
            },
            {
                "bitwidth": 5,
                "dtype": "int",
                "is_symmetric": "True",
                "max": 0.4362868070602417,
                "min": -0.46537259221076965,
                "offset": -16,
                "scale": 0.029085787013173103
            },
            {
                "bitwidth": 5,
                "dtype": "int",
                "is_symmetric": "True",
                "max": 0.2915003299713135,
                "min": -0.3109336793422699,
                "offset": -16,
                "scale": 0.01943335495889187
            },
            {
                "bitwidth": 5,
                "dtype": "int",
                "is_symmetric": "True",
                "max": 0.43578049540519714,
                "min": -0.46483251452445984,
                "offset": -16,
                "scale": 0.02905203215777874
            },
            {
                "bitwidth": 5,
                "dtype": "int",
                "is_symmetric": "True",
                "max": 0.23590593039989471,
                "min": -0.2516329884529114,
                "offset": -16,
                "scale": 0.01572706177830696
            },
            {
                "bitwidth": 5,
                "dtype": "int",
                "is_symmetric": "True",
                "max": 0.34799912571907043,
                "min": -0.3711990714073181,
                "offset": -16,
                "scale": 0.023199941962957382
            },
            {
                "bitwidth": 5,
                "dtype": "int",
                "is_symmetric": "True",
                "max": 0.29921403527259827,
                "min": -0.31916162371635437,
                "offset": -16,
                "scale": 0.019947601482272148
            },
            {
                "bitwidth": 5,
                "dtype": "int",
                "is_symmetric": "True",
                "max": 0.3532356917858124,
                "min": -0.3767847418785095,
                "offset": -16,
                "scale": 0.023549046367406845
            },
            {
                "bitwidth": 5,
                "dtype": "int",
                "is_symmetric": "True",
                "max": 0.2983318269252777,
                "min": -0.3182206153869629,
                "offset": -16,
                "scale": 0.01988878846168518
            },
            {
                "bitwidth": 5,
                "dtype": "int",
                "is_symmetric": "True",
                "max": 0.31452226638793945,
                "min": -0.3354904055595398,
                "offset": -16,
                "scale": 0.020968150347471237
            },
            {
                "bitwidth": 5,
                "dtype": "int",
                "is_symmetric": "True",
                "max": 0.2837867736816406,
                "min": -0.30270588397979736,
                "offset": -16,
                "scale": 0.018919117748737335
            },
            {
                "bitwidth": 5,
                "dtype": "int",
                "is_symmetric": "True",
                "max": 0.3172358572483063,
                "min": -0.3383849263191223,
                "offset": -16,
                "scale": 0.021149057894945145
            },
            {
                "bitwidth": 5,
                "dtype": "int",
                "is_symmetric": "True",
                "max": 0.3505518436431885,
                "min": -0.3739219605922699,
                "offset": -16,
                "scale": 0.02337012253701687
            },
            {
                "bitwidth": 5,
                "dtype": "int",
                "is_symmetric": "True",
                "max": 0.2729188799858093,
                "min": -0.2911134660243988,
                "offset": -16,
                "scale": 0.018194591626524925
            },
            {
                "bitwidth": 5,
                "dtype": "int",
                "is_symmetric": "True",
                "max": 0.2658484876155853,
                "min": -0.283571720123291,
                "offset": -16,
                "scale": 0.01772323250770569
            },
            {
                "bitwidth": 5,
                "dtype": "int",
                "is_symmetric": "True",
                "max": 0.28845497965812683,
                "min": -0.30768531560897827,
                "offset": -16,
                "scale": 0.019230332225561142
            },
            {
                "bitwidth": 5,
                "dtype": "int",
                "is_symmetric": "True",
                "max": 0.234598770737648,
                "min": -0.25023868680000305,
                "offset": -16,
                "scale": 0.01563991792500019
            },
            {
                "bitwidth": 5,
                "dtype": "int",
                "is_symmetric": "True",
                "max": 0.295575350522995,
                "min": -0.31528037786483765,
                "offset": -16,
                "scale": 0.019705023616552353
            },
            {
                "bitwidth": 5,
                "dtype": "int",
                "is_symmetric": "True",
                "max": 0.2712520360946655,
                "min": -0.2893355190753937,
                "offset": -16,
                "scale": 0.018083469942212105
            },
            {
                "bitwidth": 5,
                "dtype": "int",
                "is_symmetric": "True",
                "max": 0.35581400990486145,
                "min": -0.37953492999076843,
                "offset": -16,
                "scale": 0.023720933124423027
            },
            {
                "bitwidth": 5,
                "dtype": "int",
                "is_symmetric": "True",
                "max": 0.27247387170791626,
                "min": -0.29063880443573,
                "offset": -16,
                "scale": 0.018164925277233124
            },
            {
                "bitwidth": 5,
                "dtype": "int",
                "is_symmetric": "True",
                "max": 0.3214561343193054,
                "min": -0.3428865373134613,
                "offset": -16,
                "scale": 0.02143040858209133
            },
            {
                "bitwidth": 5,
                "dtype": "int",
                "is_symmetric": "True",
                "max": 0.28429681062698364,
                "min": -0.30324992537498474,
                "offset": -16,
                "scale": 0.018953120335936546
            },
            {
                "bitwidth": 5,
                "dtype": "int",
                "is_symmetric": "True",
                "max": 0.3277851343154907,
                "min": -0.3496374785900116,
                "offset": -16,
                "scale": 0.021852342411875725
            },
            {
                "bitwidth": 5,
                "dtype": "int",
                "is_symmetric": "True",
                "max": 0.3592877686023712,
                "min": -0.383240282535553,
                "offset": -16,
                "scale": 0.02395251765847206
            },
            {
                "bitwidth": 5,
                "dtype": "int",
                "is_symmetric": "True",
                "max": 0.2919614017009735,
                "min": -0.31142550706863403,
                "offset": -16,
                "scale": 0.019464094191789627
            },
            {
                "bitwidth": 5,
                "dtype": "int",
                "is_symmetric": "True",
                "max": 0.29990050196647644,
                "min": -0.31989386677742004,
                "offset": -16,
                "scale": 0.019993366673588753
            },
            {
                "bitwidth": 5,
                "dtype": "int",
                "is_symmetric": "True",
                "max": 0.3472301959991455,
                "min": -0.37037888169288635,
                "offset": -16,
                "scale": 0.023148680105805397
            },
            {
                "bitwidth": 5,
                "dtype": "int",
                "is_symmetric": "True",
                "max": 0.2783080041408539,
                "min": -0.296861857175827,
                "offset": -16,
                "scale": 0.01855386607348919
            },
            {
                "bitwidth": 5,
                "dtype": "int",
                "is_symmetric": "True",
                "max": 0.36670100688934326,
                "min": -0.3911477327346802,
                "offset": -16,
                "scale": 0.02444673329591751
            },
            {
                "bitwidth": 5,
                "dtype": "int",
                "is_symmetric": "True",
                "max": 0.36402666568756104,
                "min": -0.38829511404037476,
                "offset": -16,
                "scale": 0.024268444627523422
            },
            {
                "bitwidth": 5,
                "dtype": "int",
                "is_symmetric": "True",
                "max": 0.3380526006221771,
                "min": -0.3605894446372986,
                "offset": -16,
                "scale": 0.02253684028983116
            },
            {
                "bitwidth": 5,
                "dtype": "int",
                "is_symmetric": "True",
                "max": 0.34536635875701904,
                "min": -0.3683907985687256,
                "offset": -16,
                "scale": 0.02302442491054535
            },
            {
                "bitwidth": 5,
                "dtype": "int",
                "is_symmetric": "True",
                "max": 0.356012761592865,
                "min": -0.3797469437122345,
                "offset": -16,
                "scale": 0.023734183982014656
            },
            {
                "bitwidth": 5,
                "dtype": "int",
                "is_symmetric": "True",
                "max": 0.33538830280303955,
                "min": -0.35774752497673035,
                "offset": -16,
                "scale": 0.022359220311045647
            },
            {
                "bitwidth": 5,
                "dtype": "int",
                "is_symmetric": "True",
                "max": 0.2896111011505127,
                "min": -0.3089185059070587,
                "offset": -16,
                "scale": 0.01930740661919117
            },
            {
                "bitwidth": 5,
                "dtype": "int",
                "is_symmetric": "True",
                "max": 0.2797830104827881,
                "min": -0.2984352111816406,
                "offset": -16,
                "scale": 0.01865220069885254
            },
            {
                "bitwidth": 5,
                "dtype": "int",
                "is_symmetric": "True",
                "max": 0.28721320629119873,
                "min": -0.30636075139045715,
                "offset": -16,
                "scale": 0.019147546961903572
            },
            {
                "bitwidth": 5,
                "dtype": "int",
                "is_symmetric": "True",
                "max": 0.2616881728172302,
                "min": -0.279134064912796,
                "offset": -16,
                "scale": 0.01744587905704975
            },
            {
                "bitwidth": 5,
                "dtype": "int",
                "is_symmetric": "True",
                "max": 0.2730464041233063,
                "min": -0.29124948382377625,
                "offset": -16,
                "scale": 0.018203092738986015
            },
            {
                "bitwidth": 5,
                "dtype": "int",
                "is_symmetric": "True",
                "max": 0.2981905937194824,
                "min": -0.3180699646472931,
                "offset": -16,
                "scale": 0.019879372790455818
            },
            {
                "bitwidth": 5,
                "dtype": "int",
                "is_symmetric": "True",
                "max": 0.3637670874595642,
                "min": -0.3880182206630707,
                "offset": -16,
                "scale": 0.024251138791441917
            },
            {
                "bitwidth": 5,
                "dtype": "int",
                "is_symmetric": "True",
                "max": 0.27780044078826904,
                "min": -0.29632046818733215,
                "offset": -16,
                "scale": 0.01852002926170826
            },
            {
                "bitwidth": 5,
                "dtype": "int",
                "is_symmetric": "True",
                "max": 0.33203625679016113,
                "min": -0.354172021150589,
                "offset": -16,
                "scale": 0.022135751321911812
            },
            {
                "bitwidth": 5,
                "dtype": "int",
                "is_symmetric": "True",
                "max": 0.28574997186660767,
                "min": -0.30479997396469116,
                "offset": -16,
                "scale": 0.019049998372793198
            },
            {
                "bitwidth": 5,
                "dtype": "int",
                "is_symmetric": "True",
                "max": 0.26272547245025635,
                "min": -0.2802405059337616,
                "offset": -16,
                "scale": 0.0175150316208601
            },
            {
                "bitwidth": 5,
                "dtype": "int",
                "is_symmetric": "True",
                "max": 0.40714335441589355,
                "min": -0.4342862367630005,
                "offset": -16,
                "scale": 0.02714288979768753
            },
            {
                "bitwidth": 5,
                "dtype": "int",
                "is_symmetric": "True",
                "max": 0.3354754149913788,
                "min": -0.3578404486179352,
                "offset": -16,
                "scale": 0.02236502803862095
            },
            {
                "bitwidth": 5,
                "dtype": "int",
                "is_symmetric": "True",
                "max": 0.24785131216049194,
                "min": -0.2643747329711914,
                "offset": -16,
                "scale": 0.016523420810699463
            },
            {
                "bitwidth": 5,
                "dtype": "int",
                "is_symmetric": "True",
                "max": 0.28223228454589844,
                "min": -0.30104777216911316,
                "offset": -16,
                "scale": 0.018815485760569572
            },
            {
                "bitwidth": 5,
                "dtype": "int",
                "is_symmetric": "True",
                "max": 0.280111700296402,
                "min": -0.2987858057022095,
                "offset": -16,
                "scale": 0.018674112856388092
            },
            {
                "bitwidth": 5,
                "dtype": "int",
                "is_symmetric": "True",
                "max": 0.3228493928909302,
                "min": -0.3443726897239685,
                "offset": -16,
                "scale": 0.02152329310774803
            },
            {
                "bitwidth": 5,
                "dtype": "int",
                "is_symmetric": "True",
                "max": 0.273862361907959,
                "min": -0.2921198606491089,
                "offset": -16,
                "scale": 0.018257491290569305
            },
            {
                "bitwidth": 5,
                "dtype": "int",
                "is_symmetric": "True",
                "max": 0.33890289068222046,
                "min": -0.3614964187145233,
                "offset": -16,
                "scale": 0.022593526169657707
            },
            {
                "bitwidth": 5,
                "dtype": "int",
                "is_symmetric": "True",
                "max": 0.3081578016281128,
                "min": -0.3287016451358795,
                "offset": -16,
                "scale": 0.02054385282099247
            },
            {
                "bitwidth": 5,
                "dtype": "int",
                "is_symmetric": "True",
                "max": 0.2605885863304138,
                "min": -0.2779611647129059,
                "offset": -16,
                "scale": 0.017372572794556618
            },
            {
                "bitwidth": 5,
                "dtype": "int",
                "is_symmetric": "True",
                "max": 0.27502378821372986,
                "min": -0.293358713388443,
                "offset": -16,
                "scale": 0.018334919586777687
            },
            {
                "bitwidth": 5,
                "dtype": "int",
                "is_symmetric": "True",
                "max": 0.380407452583313,
                "min": -0.40576794743537903,
                "offset": -16,
                "scale": 0.02536049671471119
            },
            {
                "bitwidth": 5,
                "dtype": "int",
                "is_symmetric": "True",
                "max": 0.31613627076148987,
                "min": -0.3372120261192322,
                "offset": -16,
                "scale": 0.02107575163245201
            },
            {
                "bitwidth": 5,
                "dtype": "int",
                "is_symmetric": "True",
                "max": 0.3428604006767273,
                "min": -0.3657177686691284,
                "offset": -16,
                "scale": 0.022857360541820526
            },
            {
                "bitwidth": 5,
                "dtype": "int",
                "is_symmetric": "True",
                "max": 0.4400350749492645,
                "min": -0.4693707525730133,
                "offset": -16,
                "scale": 0.02933567203581333
            },
            {
                "bitwidth": 5,
                "dtype": "int",
                "is_symmetric": "True",
                "max": 0.30251967906951904,
                "min": -0.32268765568733215,
                "offset": -16,
                "scale": 0.02016797848045826
            },
            {
                "bitwidth": 5,
                "dtype": "int",
                "is_symmetric": "True",
                "max": 0.2308206558227539,
                "min": -0.24620869755744934,
                "offset": -16,
                "scale": 0.015388043597340584
            },
            {
                "bitwidth": 5,
                "dtype": "int",
                "is_symmetric": "True",
                "max": 0.24066117405891418,
                "min": -0.25670525431632996,
                "offset": -16,
                "scale": 0.016044078394770622
            },
            {
                "bitwidth": 5,
                "dtype": "int",
                "is_symmetric": "True",
                "max": 0.31386399269104004,
                "min": -0.3347882628440857,
                "offset": -16,
                "scale": 0.020924266427755356
            },
            {
                "bitwidth": 5,
                "dtype": "int",
                "is_symmetric": "True",
                "max": 0.22918179631233215,
