{
    "param_encodings": {
        "conv1.weight": [
            {
                "bitwidth": 6,
                "dtype": "int",
                "is_symmetric": "True",
                "max": 0.1765708476305008,
                "min": -0.18226668238639832,
                "offset": -32,
                "scale": 0.005695833824574947
            },
            {
                "bitwidth": 6,
                "dtype": "int",
                "is_symmetric": "True",
                "max": 0.04291823133826256,
                "min": -0.04430269077420235,
                "offset": -32,
                "scale": 0.0013844590866938233
            },
            {
                "bitwidth": 6,
                "dtype": "int",
                "is_symmetric": "True",
                "max": 3.6954879760742188e-06,
                "min": -3.814697265625e-06,
                "offset": -32,
                "scale": 1.1920928955078125e-07
            },
            {
                "bitwidth": 6,
                "dtype": "int",
                "is_symmetric": "True",
                "max": 0.04635193198919296,
                "min": -0.04784715548157692,
                "offset": -32,
                "scale": 0.0014952236087992787
            },
            {
                "bitwidth": 6,
                "dtype": "int",
                "is_symmetric": "True",
                "max": 3.6954879760742188e-06,
                "min": -3.814697265625e-06,
                "offset": -32,
                "scale": 1.1920928955078125e-07
            },
            {
                "bitwidth": 6,
                "dtype": "int",
                "is_symmetric": "True",
                "max": 0.11298945546150208,
                "min": -0.11663427948951721,
                "offset": -32,
                "scale": 0.003644821234047413
            },
            {
                "bitwidth": 6,
                "dtype": "int",
                "is_symmetric": "True",
                "max": 0.11129110306501389,
                "min": -0.11488113552331924,
                "offset": -32,
                "scale": 0.0035900354851037264
            },
            {
                "bitwidth": 6,
                "dtype": "int",
                "is_symmetric": "True",
                "max": 3.6954879760742188e-06,
                "min": -3.814697265625e-06,
                "offset": -32,
                "scale": 1.1920928955078125e-07
            },
            {
                "bitwidth": 6,
                "dtype": "int",
                "is_symmetric": "True",
                "max": 0.19724136590957642,
                "min": -0.20360399782657623,
                "offset": -32,
                "scale": 0.006362624932080507
            },
            {
                "bitwidth": 6,
                "dtype": "int",
                "is_symmetric": "True",
                "max": 3.6954879760742188e-06,
                "min": -3.814697265625e-06,
                "offset": -32,
                "scale": 1.1920928955078125e-07
            },
            {
                "bitwidth": 6,
                "dtype": "int",
                "is_symmetric": "True",
                "max": 0.09255995601415634,
                "min": -0.09554576128721237,
                "offset": -32,
                "scale": 0.0029858050402253866
            },
            {
                "bitwidth": 6,
                "dtype": "int",
                "is_symmetric": "True",
                "max": 0.07501313835382462,
                "min": -0.07743291556835175,
                "offset": -32,
                "scale": 0.002419778611510992
            },
            {
                "bitwidth": 6,
                "dtype": "int",
                "is_symmetric": "True",
                "max": 0.0348188616335392,
                "min": -0.03594205155968666,
                "offset": -32,
                "scale": 0.0011231891112402081
            },
            {
                "bitwidth": 6,
                "dtype": "int",
                "is_symmetric": "True",
                "max": 3.6954879760742188e-06,
                "min": -3.814697265625e-06,
                "offset": -32,
                "scale": 1.1920928955078125e-07
            },
            {
                "bitwidth": 6,
                "dtype": "int",
                "is_symmetric": "True",
                "max": 0.02175970748066902,
                "min": -0.022461634129285812,
                "offset": -32,
                "scale": 0.0007019260665401816
            },
            {
                "bitwidth": 6,
                "dtype": "int",
                "is_symmetric": "True",
                "max": 0.19009526073932648,
                "min": -0.19622737169265747,
                "offset": -32,
                "scale": 0.006132105365395546
            },
            {
                "bitwidth": 6,
                "dtype": "int",
                "is_symmetric": "True",
                "max": 0.032224081456661224,
                "min": -0.033263567835092545,
                "offset": -32,
                "scale": 0.001039486494846642
            },
            {
                "bitwidth": 6,
                "dtype": "int",
                "is_symmetric": "True",
                "max": 0.013414709828794003,
                "min": -0.013847442343831062,
                "offset": -32,
                "scale": 0.0004327325732447207
            },
            {
                "bitwidth": 6,
                "dtype": "int",
                "is_symmetric": "True",
                "max": 0.07859896123409271,
                "min": -0.08113440871238708,
                "offset": -32,
                "scale": 0.0025354502722620964
            },
            {
                "bitwidth": 6,
                "dtype": "int",
                "is_symmetric": "True",
                "max": 0.02184685692191124,
                "min": -0.02255159430205822,
                "offset": -32,
                "scale": 0.0007047373219393194
            },
            {
                "bitwidth": 6,
                "dtype": "int",
                "is_symmetric": "True",
                "max": 0.055042847990989685,
                "min": -0.05681842193007469,
                "offset": -32,
                "scale": 0.0017755756853148341
            },
            {
                "bitwidth": 6,
                "dtype": "int",
                "is_symmetric": "True",
                "max": 0.010619592852890491,
                "min": -0.010962160304188728,
                "offset": -32,
                "scale": 0.00034256750950589776
            },
            {
                "bitwidth": 6,
                "dtype": "int",
                "is_symmetric": "True",
                "max": 0.03057386912405491,
                "min": -0.03156012296676636,
                "offset": -32,
                "scale": 0.0009862538427114487
            },
            {
                "bitwidth": 6,
                "dtype": "int",
                "is_symmetric": "True",
                "max": 0.19426947832107544,
                "min": -0.20053623616695404,
                "offset": -32,
                "scale": 0.006266757380217314
            },
            {
                "bitwidth": 6,
                "dtype": "int",
                "is_symmetric": "True",
                "max": 0.38762351870536804,
                "min": -0.40012750029563904,
                "offset": -32,
                "scale": 0.01250398438423872
            },
            {
                "bitwidth": 6,
                "dtype": "int",
                "is_symmetric": "True",
                "max": 0.031115489080548286,
                "min": -0.03211921453475952,
                "offset": -32,
                "scale": 0.001003725454211235
            },
            {
                "bitwidth": 6,
                "dtype": "int",
                "is_symmetric": "True",
                "max": 0.021587641909718513,
                "min": -0.022284017875790596,
                "offset": -32,
                "scale": 0.0006963755586184561
            },
            {
                "bitwidth": 6,
                "dtype": "int",
                "is_symmetric": "True",
                "max": 0.03277520462870598,
                "min": -0.03383246809244156,
                "offset": -32,
                "scale": 0.0010572646278887987
            },
            {
                "bitwidth": 6,
                "dtype": "int",
                "is_symmetric": "True",
                "max": 0.07731207460165024,
                "min": -0.07980601489543915,
                "offset": -32,
                "scale": 0.0024939379654824734
            },
            {
                "bitwidth": 6,
                "dtype": "int",
                "is_symmetric": "True",
                "max": 0.10377375781536102,
                "min": -0.1071212962269783,
                "offset": -32,
                "scale": 0.003347540507093072
            },
            {
                "bitwidth": 6,
                "dtype": "int",
                "is_symmetric": "True",
                "max": 0.13367372751235962,
                "min": -0.13798578083515167,
                "offset": -32,
                "scale": 0.00431205565109849
            },
            {
                "bitwidth": 6,
                "dtype": "int",
                "is_symmetric": "True",
                "max": 0.05951256304979324,
                "min": -0.06143232434988022,
                "offset": -32,
                "scale": 0.0019197601359337568
            },
            {
                "bitwidth": 6,
                "dtype": "int",
                "is_symmetric": "True",
                "max": 0.03536437451839447,
                "min": -0.03650515899062157,
                "offset": -32,
                "scale": 0.001140786218456924
            },
            {
                "bitwidth": 6,
                "dtype": "int",
                "is_symmetric": "True",
                "max": 0.08525809645652771,
                "min": -0.08800835907459259,
                "offset": -32,
                "scale": 0.0027502612210810184
            },
            {
                "bitwidth": 6,
                "dtype": "int",
                "is_symmetric": "True",
                "max": 0.04792741313576698,
                "min": -0.04947345703840256,
                "offset": -32,
                "scale": 0.00154604553245008
            },
            {
                "bitwidth": 6,
                "dtype": "int",
                "is_symmetric": "True",
                "max": 0.03570954501628876,
                "min": -0.03686146438121796,
                "offset": -32,
                "scale": 0.0011519207619130611
            },
            {
                "bitwidth": 6,
                "dtype": "int",
                "is_symmetric": "True",
                "max": 3.6954879760742188e-06,
                "min": -3.814697265625e-06,
                "offset": -32,
                "scale": 1.1920928955078125e-07
            },
            {
                "bitwidth": 6,
                "dtype": "int",
                "is_symmetric": "True",
                "max": 0.037546589970588684,
                "min": -0.038757771253585815,
                "offset": -32,
                "scale": 0.0012111803516745567
            },
            {
                "bitwidth": 6,
                "dtype": "int",
                "is_symmetric": "True",
                "max": 3.6954879760742188e-06,
                "min": -3.814697265625e-06,
                "offset": -32,
                "scale": 1.1920928955078125e-07
            },
            {
                "bitwidth": 6,
                "dtype": "int",
                "is_symmetric": "True",
                "max": 0.36394932866096497,
                "min": -0.37568962574005127,
                "offset": -32,
                "scale": 0.011740300804376602
            },
            {
                "bitwidth": 6,
                "dtype": "int",
                "is_symmetric": "True",
                "max": 0.28099605441093445,
                "min": -0.290060430765152,
                "offset": -32,
                "scale": 0.009064388461411
            },
            {
                "bitwidth": 6,
                "dtype": "int",
                "is_symmetric": "True",
                "max": 0.1489163339138031,
                "min": -0.15372008085250854,
                "offset": -32,
                "scale": 0.004803752526640892
            },
            {
                "bitwidth": 6,
                "dtype": "int",
                "is_symmetric": "True",
                "max": 0.14423468708992004,
                "min": -0.14888742566108704,
                "offset": -32,
                "scale": 0.00465273205190897
            },
            {
                "bitwidth": 6,
                "dtype": "int",
                "is_symmetric": "True",
                "max": 0.07815280556678772,
                "min": -0.08067386597394943,
                "offset": -32,
                "scale": 0.0025210583116859198
            },
            {
                "bitwidth": 6,
                "dtype": "int",
                "is_symmetric": "True",
                "max": 0.10222510248422623,
                "min": -0.10552268475294113,
                "offset": -32,
                "scale": 0.0032975838985294104
            },
            {
                "bitwidth": 6,
                "dtype": "int",
                "is_symmetric": "True",
                "max": 0.03648582473397255,
                "min": -0.03766278550028801,
                "offset": -32,
                "scale": 0.0011769620468840003
            },
            {
                "bitwidth": 6,
                "dtype": "int",
                "is_symmetric": "True",
                "max": 0.016156407073140144,
                "min": -0.016677580773830414,
                "offset": -32,
                "scale": 0.0005211743991822004
            },
            {
                "bitwidth": 6,
                "dtype": "int",
                "is_symmetric": "True",
                "max": 0.21679741144180298,
                "min": -0.22379086911678314,
                "offset": -32,
                "scale": 0.006993464659899473
            },
            {
                "bitwidth": 6,
                "dtype": "int",
                "is_symmetric": "True",
                "max": 3.6954879760742188e-06,
                "min": -3.814697265625e-06,
                "offset": -32,
                "scale": 1.1920928955078125e-07
            },
            {
                "bitwidth": 6,
                "dtype": "int",
                "is_symmetric": "True",
                "max": 0.15196506679058075,
                "min": -0.1568671613931656,
                "offset": -32,
                "scale": 0.004902098793536425
            },
            {
                "bitwidth": 6,
                "dtype": "int",
                "is_symmetric": "True",
                "max": 0.29434335231781006,
                "min": -0.303838312625885,
                "offset": -32,
                "scale": 0.009494947269558907
            },
            {
                "bitwidth": 6,
                "dtype": "int",
                "is_symmetric": "True",
                "max": 0.13295245170593262,
                "min": -0.13724124431610107,
                "offset": -32,
                "scale": 0.004288788884878159
            },
            {
                "bitwidth": 6,
                "dtype": "int",
                "is_symmetric": "True",
                "max": 0.06320594996213913,
                "min": -0.06524485349655151,
                "offset": -32,
                "scale": 0.002038901671767235
            },
            {
                "bitwidth": 6,
                "dtype": "int",
                "is_symmetric": "True",
                "max": 0.2653701603412628,
                "min": -0.27393049001693726,
                "offset": -32,
                "scale": 0.00856032781302929
            },
            {
                "bitwidth": 6,
                "dtype": "int",
                "is_symmetric": "True",
                "max": 0.011047733947634697,
                "min": -0.011404111981391907,
                "offset": -32,
                "scale": 0.0003563784994184971
            },
            {
                "bitwidth": 6,
                "dtype": "int",
                "is_symmetric": "True",
                "max": 0.19586533308029175,
                "min": -0.2021835744380951,
                "offset": -32,
                "scale": 0.006318236701190472
            },
            {
                "bitwidth": 6,
                "dtype": "int",
                "is_symmetric": "True",
                "max": 0.05183235555887222,
                "min": -0.05350436642765999,
                "offset": -32,
                "scale": 0.0016720114508643746
            },
            {
                "bitwidth": 6,
                "dtype": "int",
                "is_symmetric": "True",
                "max": 0.02367931604385376,
                "min": -0.024443164467811584,
                "offset": -32,
                "scale": 0.000763848889619112
            },
            {
                "bitwidth": 6,
                "dtype": "int",
                "is_symmetric": "True",
                "max": 0.05978885293006897,
                "min": -0.061717525124549866,
                "offset": -32,
                "scale": 0.0019286726601421833
            },
            {
                "bitwidth": 6,
                "dtype": "int",
                "is_symmetric": "True",
                "max": 0.15869437158107758,
                "min": -0.1638135462999344,
                "offset": -32,
                "scale": 0.00511917332187295
            },
            {
                "bitwidth": 6,
                "dtype": "int",
                "is_symmetric": "True",
                "max": 0.12516354024410248,
                "min": -0.12920106947422028,
                "offset": -32,
                "scale": 0.004037533421069384
            },
            {
                "bitwidth": 6,
                "dtype": "int",
                "is_symmetric": "True",
                "max": 0.009252995252609253,
                "min": -0.009551478549838066,
                "offset": -32,
                "scale": 0.00029848370468243957
            },
            {
                "bitwidth": 6,
                "dtype": "int",
                "is_symmetric": "True",
                "max": 0.034245334565639496,
                "min": -0.035350020974874496,
                "offset": -32,
                "scale": 0.001104688155464828
            },
            {
                "bitwidth": 6,
                "dtype": "int",
                "is_symmetric": "True",
                "max": 0.1202254444360733,
                "min": -0.12410368770360947,
                "offset": -32,
                "scale": 0.003878240240737796
            }
        ],
        "fc.weight": [
            {
                "bitwidth": 6,
                "dtype": "int",
                "is_symmetric": "True",
                "max": 0.29728996753692627,
                "min": -0.3068799674510956,
                "offset": -32,
                "scale": 0.009589998982846737
            },
            {
                "bitwidth": 6,
                "dtype": "int",
                "is_symmetric": "True",
                "max": 0.3488674759864807,
                "min": -0.3601212501525879,
                "offset": -32,
                "scale": 0.011253789067268372
            },
            {
                "bitwidth": 6,
                "dtype": "int",
                "is_symmetric": "True",
                "max": 0.32128989696502686,
                "min": -0.33165407180786133,
                "offset": -32,
                "scale": 0.010364189743995667
            },
            {
                "bitwidth": 6,
                "dtype": "int",
                "is_symmetric": "True",
                "max": 0.2840711772441864,
                "min": -0.29323476552963257,
                "offset": -32,
                "scale": 0.009163586422801018
            },
            {
                "bitwidth": 6,
                "dtype": "int",
                "is_symmetric": "True",
                "max": 0.2978593111038208,
                "min": -0.30746766924858093,
                "offset": -32,
                "scale": 0.009608364664018154
            },
            {
                "bitwidth": 6,
                "dtype": "int",
                "is_symmetric": "True",
                "max": 0.3004835546016693,
                "min": -0.3101765811443329,
                "offset": -32,
                "scale": 0.009693018160760403
            },
            {
                "bitwidth": 6,
                "dtype": "int",
                "is_symmetric": "True",
                "max": 0.3224639296531677,
                "min": -0.33286598324775696,
                "offset": -32,
                "scale": 0.010402061976492405
            },
            {
                "bitwidth": 6,
                "dtype": "int",
                "is_symmetric": "True",
                "max": 0.4224327504634857,
                "min": -0.4360596239566803,
                "offset": -32,
                "scale": 0.01362686324864626
            },
            {
                "bitwidth": 6,
                "dtype": "int",
                "is_symmetric": "True",
                "max": 0.4773581326007843,
                "min": -0.49275678396224976,
                "offset": -32,
                "scale": 0.015398649498820305
            },
            {
                "bitwidth": 6,
                "dtype": "int",
                "is_symmetric": "True",
                "max": 0.3937392234802246,
                "min": -0.40644049644470215,
                "offset": -32,
                "scale": 0.012701265513896942
            },
            {
                "bitwidth": 6,
                "dtype": "int",
                "is_symmetric": "True",
                "max": 0.3380747437477112,
                "min": -0.3489803671836853,
                "offset": -32,
                "scale": 0.010905636474490166
            },
            {
                "bitwidth": 6,
                "dtype": "int",
                "is_symmetric": "True",
                "max": 0.3855249881744385,
                "min": -0.397961288690567,
                "offset": -32,
                "scale": 0.01243629027158022
            },
            {
                "bitwidth": 6,
                "dtype": "int",
                "is_symmetric": "True",
                "max": 0.3732836842536926,
                "min": -0.3853251039981842,
                "offset": -32,
                "scale": 0.012041409499943256
            },
            {
                "bitwidth": 6,
                "dtype": "int",
                "is_symmetric": "True",
                "max": 0.34548676013946533,
                "min": -0.35663148760795593,
                "offset": -32,
                "scale": 0.011144733987748623
            },
            {
                "bitwidth": 6,
                "dtype": "int",
                "is_symmetric": "True",
                "max": 0.4142548739910126,
                "min": -0.4276179373264313,
                "offset": -32,
                "scale": 0.013363060541450977
            },
            {
                "bitwidth": 6,
                "dtype": "int",
                "is_symmetric": "True",
                "max": 0.3040619194507599,
                "min": -0.313870370388031,
                "offset": -32,
                "scale": 0.009808449074625969
            },
            {
                "bitwidth": 6,
                "dtype": "int",
                "is_symmetric": "True",
                "max": 0.2727297842502594,
                "min": -0.2815275192260742,
                "offset": -32,
                "scale": 0.00879773497581482
            },
            {
                "bitwidth": 6,
                "dtype": "int",
                "is_symmetric": "True",
                "max": 0.4843490719795227,
                "min": -0.49997323751449585,
                "offset": -32,
                "scale": 0.015624163672327995
            },
            {
                "bitwidth": 6,
                "dtype": "int",
                "is_symmetric": "True",
                "max": 0.3017851412296295,
                "min": -0.31152015924453735,
                "offset": -32,
                "scale": 0.009735004976391792
            },
            {
                "bitwidth": 6,
                "dtype": "int",
                "is_symmetric": "True",
                "max": 0.3212515115737915,
                "min": -0.3316144645214081,
                "offset": -32,
                "scale": 0.010362952016294003
            },
            {
                "bitwidth": 6,
                "dtype": "int",
                "is_symmetric": "True",
                "max": 0.36182716488838196,
                "min": -0.3734990060329437,
                "offset": -32,
                "scale": 0.011671843938529491
            },
            {
                "bitwidth": 6,
                "dtype": "int",
                "is_symmetric": "True",
                "max": 0.29101765155792236,
                "min": -0.3004053235054016,
                "offset": -32,
                "scale": 0.0093876663595438
            },
            {
                "bitwidth": 6,
                "dtype": "int",
                "is_symmetric": "True",
                "max": 0.33352234959602356,
                "min": -0.3442811369895935,
                "offset": -32,
                "scale": 0.010758785530924797
            },
            {
                "bitwidth": 6,
                "dtype": "int",
                "is_symmetric": "True",
                "max": 0.3227345943450928,
                "min": -0.3331453800201416,
                "offset": -32,
                "scale": 0.010410793125629425
            },
            {
                "bitwidth": 6,
                "dtype": "int",
                "is_symmetric": "True",
                "max": 0.3175923824310303,
                "min": -0.3278372883796692,
                "offset": -32,
                "scale": 0.010244915261864662
            },
            {
                "bitwidth": 6,
                "dtype": "int",
                "is_symmetric": "True",
                "max": 0.331316739320755,
                "min": -0.3420043885707855,
                "offset": -32,
                "scale": 0.010687637142837048
            },
            {
                "bitwidth": 6,
                "dtype": "int",
                "is_symmetric": "True",
                "max": 0.3002052903175354,
                "min": -0.3098893165588379,
                "offset": -32,
                "scale": 0.009684041142463684
            },
            {
                "bitwidth": 6,
                "dtype": "int",
                "is_symmetric": "True",
                "max": 0.32401806116104126,
                "min": -0.334470272064209,
                "offset": -32,
                "scale": 0.01045219600200653
            },
            {
                "bitwidth": 6,
                "dtype": "int",
                "is_symmetric": "True",
                "max": 0.3466046154499054,
                "min": -0.3577854037284851,
                "offset": -32,
                "scale": 0.01118079386651516
            },
            {
                "bitwidth": 6,
                "dtype": "int",
                "is_symmetric": "True",
                "max": 0.4038299322128296,
                "min": -0.41685670614242554,
                "offset": -32,
                "scale": 0.013026772066950798
            },
            {
                "bitwidth": 6,
                "dtype": "int",
                "is_symmetric": "True",
                "max": 0.2925960421562195,
                "min": -0.3020346164703369,
                "offset": -32,
                "scale": 0.009438581764698029
            },
            {
                "bitwidth": 6,
                "dtype": "int",
                "is_symmetric": "True",
                "max": 0.339344322681427,
                "min": -0.3502909243106842,
                "offset": -32,
                "scale": 0.010946591384708881
            },
            {
                "bitwidth": 6,
                "dtype": "int",
                "is_symmetric": "True",
                "max": 0.2939091622829437,
                "min": -0.30339011549949646,
                "offset": -32,
                "scale": 0.009480941109359264
            },
            {
                "bitwidth": 6,
                "dtype": "int",
                "is_symmetric": "True",
                "max": 0.3428357243537903,
                "min": -0.3538949489593506,
                "offset": -32,
                "scale": 0.011059217154979706
            },
            {
                "bitwidth": 6,
                "dtype": "int",
                "is_symmetric": "True",
                "max": 0.37234193086624146,
                "min": -0.3843529522418976,
                "offset": -32,
                "scale": 0.0120110297575593
            },
            {
                "bitwidth": 6,
                "dtype": "int",
                "is_symmetric": "True",
                "max": 0.40458759665489197,
                "min": -0.4176388084888458,
                "offset": -32,
                "scale": 0.013051212765276432
            },
            {
                "bitwidth": 6,
                "dtype": "int",
                "is_symmetric": "True",
                "max": 0.3445475399494171,
                "min": -0.3556619882583618,
                "offset": -32,
                "scale": 0.011114437133073807
            },
            {
                "bitwidth": 6,
                "dtype": "int",
                "is_symmetric": "True",
                "max": 0.3382912278175354,
                "min": -0.34920385479927063,
                "offset": -32,
                "scale": 0.010912620462477207
            },
            {
                "bitwidth": 6,
                "dtype": "int",
                "is_symmetric": "True",
                "max": 0.3078366219997406,
                "min": -0.31776684522628784,
                "offset": -32,
                "scale": 0.009930213913321495
            },
            {
                "bitwidth": 6,
                "dtype": "int",
                "is_symmetric": "True",
                "max": 0.4249846339225769,
                "min": -0.4386938214302063,
                "offset": -32,
                "scale": 0.013709181919693947
            },
            {
                "bitwidth": 6,
                "dtype": "int",
                "is_symmetric": "True",
                "max": 0.4164276123046875,
                "min": -0.42986077070236206,
                "offset": -32,
                "scale": 0.013433149084448814
            },
            {
                "bitwidth": 6,
                "dtype": "int",
                "is_symmetric": "True",
                "max": 0.34655654430389404,
                "min": -0.3577357828617096,
                "offset": -32,
                "scale": 0.011179243214428425
            },
            {
                "bitwidth": 6,
                "dtype": "int",
                "is_symmetric": "True",
                "max": 0.2978336215019226,
                "min": -0.3074411451816559,
                "offset": -32,
                "scale": 0.009607535786926746
            },
            {
                "bitwidth": 6,
                "dtype": "int",
                "is_symmetric": "True",
                "max": 0.41065341234207153,
                "min": -0.423900306224823,
                "offset": -32,
                "scale": 0.013246884569525719
            },
            {
                "bitwidth": 6,
                "dtype": "int",
                "is_symmetric": "True",
                "max": 0.3251156210899353,
                "min": -0.3356032073497772,
                "offset": -32,
                "scale": 0.010487600229680538
            },
            {
                "bitwidth": 6,
                "dtype": "int",
                "is_symmetric": "True",
                "max": 0.37393900752067566,
                "min": -0.3860015571117401,
                "offset": -32,
                "scale": 0.012062548659741879
            },
            {
                "bitwidth": 6,
                "dtype": "int",
                "is_symmetric": "True",
                "max": 0.3747801184654236,
                "min": -0.38686978816986084,
                "offset": -32,
                "scale": 0.012089680880308151
            },
            {
                "bitwidth": 6,
                "dtype": "int",
                "is_symmetric": "True",
                "max": 0.27361971139907837,
                "min": -0.28244614601135254,
                "offset": -32,
                "scale": 0.008826442062854767
            },
            {
                "bitwidth": 6,
                "dtype": "int",
                "is_symmetric": "True",
                "max": 0.3340395390987396,
                "min": -0.3448150157928467,
                "offset": -32,
                "scale": 0.010775469243526459
            },
            {
                "bitwidth": 6,
                "dtype": "int",
                "is_symmetric": "True",
                "max": 0.4007754325866699,
                "min": -0.41370368003845215,
                "offset": -32,
                "scale": 0.01292824000120163
            },
            {
                "bitwidth": 6,
                "dtype": "int",
                "is_symmetric": "True",
                "max": 0.35416415333747864,
                "min": -0.36558881402015686,
                "offset": -32,
                "scale": 0.011424650438129902
            },
            {
                "bitwidth": 6,
                "dtype": "int",
                "is_symmetric": "True",
                "max": 0.4943636655807495,
                "min": -0.5103108882904053,
                "offset": -32,
                "scale": 0.015947215259075165
            },
            {
                "bitwidth": 6,
                "dtype": "int",
                "is_symmetric": "True",
                "max": 0.33612239360809326,
                "min": -0.3469650447368622,
                "offset": -32,
                "scale": 0.010842657648026943
            },
            {
                "bitwidth": 6,
                "dtype": "int",
                "is_symmetric": "True",
                "max": 0.34905269742012024,
                "min": -0.36031246185302734,
                "offset": -32,
                "scale": 0.011259764432907104
            },
            {
                "bitwidth": 6,
                "dtype": "int",
                "is_symmetric": "True",
                "max": 0.3581176698207855,
                "min": -0.3696698546409607,
                "offset": -32,
                "scale": 0.011552182957530022
            },
            {
                "bitwidth": 6,
                "dtype": "int",
                "is_symmetric": "True",
                "max": 0.3973594307899475,
                "min": -0.41017746925354004,
                "offset": -32,
                "scale": 0.012818045914173126
            },
            {
                "bitwidth": 6,
                "dtype": "int",
                "is_symmetric": "True",
                "max": 0.4186118245124817,
                "min": -0.43211543560028076,
                "offset": -32,
                "scale": 0.013503607362508774
            },
            {
                "bitwidth": 6,
                "dtype": "int",
                "is_symmetric": "True",
                "max": 0.4641924500465393,
                "min": -0.4791663885116577,
                "offset": -32,
                "scale": 0.014973949640989304
            },
            {
                "bitwidth": 6,
                "dtype": "int",
                "is_symmetric": "True",
                "max": 0.36859291791915894,
                "min": -0.3804830014705658,
                "offset": -32,
                "scale": 0.011890093795955181
            },
            {
                "bitwidth": 6,
                "dtype": "int",
                "is_symmetric": "True",
                "max": 0.3258752226829529,
                "min": -0.3363873362541199,
                "offset": -32,
                "scale": 0.010512104257941246
            },
            {
                "bitwidth": 6,
                "dtype": "int",
                "is_symmetric": "True",
                "max": 0.3834325671195984,
                "min": -0.3958013653755188,
                "offset": -32,
                "scale": 0.012368792667984962
            },
            {
                "bitwidth": 6,
                "dtype": "int",
                "is_symmetric": "True",
                "max": 0.6077365875244141,
                "min": -0.6273409724235535,
                "offset": -32,
                "scale": 0.019604405388236046
            },
            {
                "bitwidth": 6,
                "dtype": "int",
                "is_symmetric": "True",
                "max": 0.4775764048099518,
                "min": -0.49298208951950073,
                "offset": -32,
                "scale": 0.015405690297484398
            },
            {
                "bitwidth": 6,
                "dtype": "int",
                "is_symmetric": "True",
                "max": 0.3249012529850006,
                "min": -0.3353819251060486,
                "offset": -32,
                "scale": 0.010480685159564018
            },
            {
                "bitwidth": 6,
                "dtype": "int",
                "is_symmetric": "True",
                "max": 0.47025686502456665,
                "min": -0.4854264259338379,
                "offset": -32,
                "scale": 0.015169575810432434
            },
            {
                "bitwidth": 6,
                "dtype": "int",
                "is_symmetric": "True",
                "max": 0.3600456118583679,
                "min": -0.3716599941253662,
                "offset": -32,
                "scale": 0.011614374816417694
            },
            {
                "bitwidth": 6,
                "dtype": "int",
                "is_symmetric": "True",
                "max": 0.4147246479988098,
                "min": -0.42810285091400146,
                "offset": -32,
                "scale": 0.013378214091062546
            },
            {
                "bitwidth": 6,
                "dtype": "int",
                "is_symmetric": "True",
                "max": 0.4009622037410736,
                "min": -0.41389647126197815,
                "offset": -32,
                "scale": 0.012934264726936817
            },
            {
                "bitwidth": 6,
                "dtype": "int",
                "is_symmetric": "True",
                "max": 0.40969347953796387,
                "min": -0.4229094088077545,
                "offset": -32,
                "scale": 0.013215919025242329
            },
            {
                "bitwidth": 6,
                "dtype": "int",
                "is_symmetric": "True",
                "max": 0.37840500473976135,
                "min": -0.3906116187572479,
                "offset": -32,
                "scale": 0.012206613086163998
            },
            {
                "bitwidth": 6,
                "dtype": "int",
                "is_symmetric": "True",
                "max": 0.40685370564460754,
                "min": -0.4199780225753784,
                "offset": -32,
                "scale": 0.013124313205480576
            },
            {
                "bitwidth": 6,
                "dtype": "int",
                "is_symmetric": "True",
                "max": 0.29212409257888794,
                "min": -0.30154743790626526,
                "offset": -32,
                "scale": 0.00942335743457079
            },
            {
                "bitwidth": 6,
                "dtype": "int",
                "is_symmetric": "True",
                "max": 0.5898316502571106,
                "min": -0.6088584661483765,
                "offset": -32,
                "scale": 0.019026827067136765
            },
            {
                "bitwidth": 6,
                "dtype": "int",
                "is_symmetric": "True",
                "max": 0.5667123198509216,
                "min": -0.5849933624267578,
                "offset": -32,
                "scale": 0.01828104257583618
            },
            {
                "bitwidth": 6,
                "dtype": "int",
                "is_symmetric": "True",
                "max": 0.619620680809021,
                "min": -0.6396084427833557,
                "offset": -32,
                "scale": 0.019987763836979866
            },
            {
                "bitwidth": 6,
                "dtype": "int",
                "is_symmetric": "True",
                "max": 0.40524765849113464,
                "min": -0.4183201491832733,
                "offset": -32,
                "scale": 0.013072504661977291
            },
            {
                "bitwidth": 6,
                "dtype": "int",
                "is_symmetric": "True",
                "max": 0.40766260027885437,
                "min": -0.4208129942417145,
                "offset": -32,
                "scale": 0.013150406070053577
            },
            {
                "bitwidth": 6,
                "dtype": "int",
                "is_symmetric": "True",
                "max": 0.27344486117362976,
                "min": -0.28226566314697266,
                "offset": -32,
                "scale": 0.008820801973342896
            },
            {
                "bitwidth": 6,
                "dtype": "int",
                "is_symmetric": "True",
                "max": 0.3442869782447815,
                "min": -0.35539302229881287,
                "offset": -32,
                "scale": 0.011106031946837902
            },
            {
                "bitwidth": 6,
                "dtype": "int",
                "is_symmetric": "True",
                "max": 0.4071679413318634,
                "min": -0.4203023910522461,
                "offset": -32,
                "scale": 0.01313444972038269
            },
            {
                "bitwidth": 6,
                "dtype": "int",
                "is_symmetric": "True",
                "max": 0.35395586490631104,
                "min": -0.36537379026412964,
                "offset": -32,
                "scale": 0.011417930945754051
            },
            {
                "bitwidth": 6,
                "dtype": "int",
                "is_symmetric": "True",
                "max": 0.3859088122844696,
                "min": -0.39835748076438904,
                "offset": -32,
                "scale": 0.012448671273887157
            },
            {
                "bitwidth": 6,
                "dtype": "int",
                "is_symmetric": "True",
                "max": 0.3616270422935486,
                "min": -0.3732924461364746,
                "offset": -32,
                "scale": 0.011665388941764832
            },
            {
                "bitwidth": 6,
                "dtype": "int",
                "is_symmetric": "True",
                "max": 0.33505186438560486,
                "min": -0.34585997462272644,
                "offset": -32,
                "scale": 0.010808124206960201
            },
            {
                "bitwidth": 6,
                "dtype": "int",
                "is_symmetric": "True",
                "max": 0.5868178009986877,
                "min": -0.605747401714325,
                "offset": -32,
                "scale": 0.018929606303572655
            },
            {
                "bitwidth": 6,
                "dtype": "int",
                "is_symmetric": "True",
                "max": 0.2882528007030487,
                "min": -0.2975512742996216,
                "offset": -32,
                "scale": 0.009298477321863174
            },
            {
                "bitwidth": 6,
                "dtype": "int",
                "is_symmetric": "True",
                "max": 0.3393092453479767,
                "min": -0.35025471448898315,
                "offset": -32,
                "scale": 0.010945459827780724
            },
            {
                "bitwidth": 6,
                "dtype": "int",
                "is_symmetric": "True",
                "max": 0.3852136433124542,
                "min": -0.3976399004459381,
                "offset": -32,
                "scale": 0.012426246888935566
            },
            {
                "bitwidth": 6,
                "dtype": "int",
                "is_symmetric": "True",
                "max": 0.26937592029571533,
                "min": -0.2780654728412628,
                "offset": -32,
                "scale": 0.008689546026289463
            },
            {
                "bitwidth": 6,
                "dtype": "int",
                "is_symmetric": "True",
                "max": 0.38593098521232605,
                "min": -0.3983803689479828,
                "offset": -32,
                "scale": 0.012449386529624462
            },
            {
                "bitwidth": 6,
                "dtype": "int",
                "is_symmetric": "True",
                "max": 0.35459065437316895,
                "min": -0.3660290539264679,
                "offset": -32,
                "scale": 0.011438407935202122
            },
            {
                "bitwidth": 6,
                "dtype": "int",
                "is_symmetric": "True",
                "max": 0.30114659667015076,
                "min": -0.3108609914779663,
                "offset": -32,
                "scale": 0.009714405983686447
            },
            {
                "bitwidth": 6,
                "dtype": "int",
                "is_symmetric": "True",
                "max": 0.3257678747177124,
                "min": -0.3362765312194824,
                "offset": -32,
                "scale": 0.010508641600608826
            },
            {
                "bitwidth": 6,
                "dtype": "int",
                "is_symmetric": "True",
                "max": 0.2933657467365265,
                "min": -0.30282914638519287,
                "offset": -32,
                "scale": 0.009463410824537277
            },
            {
                "bitwidth": 6,
                "dtype": "int",
                "is_symmetric": "True",
                "max": 0.4327221214771271,
                "min": -0.4466809034347534,
                "offset": -32,
                "scale": 0.013958778232336044
            },
            {
                "bitwidth": 6,
                "dtype": "int",
                "is_symmetric": "True",
                "max": 0.29321861267089844,
                "min": -0.3026772737503052,
                "offset": -32,
                "scale": 0.009458664804697037
            },
            {
                "bitwidth": 6,
                "dtype": "int",
                "is_symmetric": "True",
                "max": 0.2720288038253784,
                "min": -0.280803918838501,
                "offset": -32,
                "scale": 0.008775122463703156
            },
            {
                "bitwidth": 6,
                "dtype": "int",
                "is_symmetric": "True",
                "max": 0.5127272009849548,
                "min": -0.5292667746543884,
                "offset": -32,
                "scale": 0.01653958670794964
            },
            {
                "bitwidth": 6,
                "dtype": "int",
                "is_symmetric": "True",
                "max": 0.34558945894241333,
                "min": -0.35673749446868896,
                "offset": -32,
                "scale": 0.01114804670214653
            },
            {
                "bitwidth": 6,
                "dtype": "int",
                "is_symmetric": "True",
                "max": 0.39102572202682495,
                "min": -0.40363946557044983,
                "offset": -32,
                "scale": 0.012613733299076557
            },
            {
                "bitwidth": 6,
                "dtype": "int",
                "is_symmetric": "True",
                "max": 0.4994575083255768,
                "min": -0.5155690312385559,
                "offset": -32,
                "scale": 0.016111532226204872
            },
            {
                "bitwidth": 6,
                "dtype": "int",
                "is_symmetric": "True",
                "max": 0.3853824734687805,
                "min": -0.39781415462493896,
                "offset": -32,
                "scale": 0.012431692332029343
            },
            {
                "bitwidth": 6,
                "dtype": "int",
                "is_symmetric": "True",
                "max": 0.3043372333049774,
                "min": -0.31415456533432007,
                "offset": -32,
                "scale": 0.009817330166697502
            },
            {
                "bitwidth": 6,
                "dtype": "int",
                "is_symmetric": "True",
                "max": 0.3449779748916626,
                "min": -0.35610631108283997,
                "offset": -32,
                "scale": 0.011128322221338749
            },
            {
                "bitwidth": 6,
                "dtype": "int",
                "is_symmetric": "True",
                "max": 0.3227533996105194,
                "min": -0.3331648111343384,
                "offset": -32,
                "scale": 0.010411400347948074
            },
            {
                "bitwidth": 6,
                "dtype": "int",
                "is_symmetric": "True",
                "max": 0.36250025033950806,
                "min": -0.37419381737709045,
                "offset": -32,
                "scale": 0.011693556793034077
            },
            {
                "bitwidth": 6,
                "dtype": "int",
                "is_symmetric": "True",
                "max": 0.3316670060157776,
                "min": -0.34236595034599304,
                "offset": -32,
                "scale": 0.010698935948312283
            },
            {
                "bitwidth": 6,
                "dtype": "int",
                "is_symmetric": "True",
                "max": 0.4724993407726288,
                "min": -0.48774126172065735,
                "offset": -32,
                "scale": 0.015241914428770542
            },
            {
                "bitwidth": 6,
                "dtype": "int",
                "is_symmetric": "True",
                "max": 0.4328280985355377,
                "min": -0.44679030776023865,
                "offset": -32,
                "scale": 0.013962197117507458
            },
            {
                "bitwidth": 6,
                "dtype": "int",
                "is_symmetric": "True",
                "max": 0.40550556778907776,
                "min": -0.418586403131485,
                "offset": -32,
                "scale": 0.013080825097858906
            },
            {
                "bitwidth": 6,
                "dtype": "int",
                "is_symmetric": "True",
                "max": 0.3404185175895691,
                "min": -0.3513997495174408,
                "offset": -32,
                "scale": 0.010981242172420025
            },
            {
                "bitwidth": 6,
                "dtype": "int",
                "is_symmetric": "True",
                "max": 0.40866416692733765,
                "min": -0.421846866607666,
                "offset": -32,
                "scale": 0.013182714581489563
            },
            {
                "bitwidth": 6,
                "dtype": "int",
                "is_symmetric": "True",
                "max": 0.3958130180835724,
                "min": -0.4085811674594879,
                "offset": -32,
                "scale": 0.012768161483108997
            },
            {
                "bitwidth": 6,
                "dtype": "int",
                "is_symmetric": "True",
                "max": 0.2742146849632263,
                "min": -0.28306031227111816,
                "offset": -32,
                "scale": 0.008845634758472443
            },
            {
                "bitwidth": 6,
                "dtype": "int",
                "is_symmetric": "True",
                "max": 0.39171797037124634,
                "min": -0.4043540358543396,
                "offset": -32,
                "scale": 0.012636063620448112
            },
            {
                "bitwidth": 6,
                "dtype": "int",
                "is_symmetric": "True",
                "max": 0.3432011902332306,
                "min": -0.35427218675613403,
                "offset": -32,
                "scale": 0.011071005836129189
            },
            {
                "bitwidth": 6,
                "dtype": "int",
                "is_symmetric": "True",
                "max": 0.31515616178512573,
                "min": -0.3253224790096283,
                "offset": -32,
                "scale": 0.010166327469050884
            },
            {
                "bitwidth": 6,
                "dtype": "int",
                "is_symmetric": "True",
                "max": 0.3451060354709625,
                "min": -0.3562384843826294,
                "offset": -32,
                "scale": 0.011132452636957169
            },
            {
                "bitwidth": 6,
                "dtype": "int",
                "is_symmetric": "True",
                "max": 0.37940236926078796,
                "min": -0.39164116978645325,
                "offset": -32,
                "scale": 0.012238786555826664
            },
            {
                "bitwidth": 6,
                "dtype": "int",
                "is_symmetric": "True",
                "max": 0.4355233907699585,
                "min": -0.44957253336906433,
                "offset": -32,
                "scale": 0.01404914166778326
            },
            {
                "bitwidth": 6,
                "dtype": "int",
                "is_symmetric": "True",
                "max": 0.30725160241127014,
                "min": -0.3171629309654236,
                "offset": -32,
                "scale": 0.009911341592669487
            },
            {
                "bitwidth": 6,
                "dtype": "int",
                "is_symmetric": "True",
                "max": 0.3776692748069763,
                "min": -0.3898521661758423,
                "offset": -32,
                "scale": 0.012182880192995071
            },
            {
                "bitwidth": 6,
                "dtype": "int",
                "is_symmetric": "True",
                "max": 0.355356365442276,
                "min": -0.36681947112083435,
                "offset": -32,
                "scale": 0.011463108472526073
            },
            {
                "bitwidth": 6,
                "dtype": "int",
                "is_symmetric": "True",
                "max": 0.38496217131614685,
                "min": -0.3973802924156189,
                "offset": -32,
                "scale": 0.01241813413798809
            },
            {
                "bitwidth": 6,
                "dtype": "int",
                "is_symmetric": "True",
                "max": 0.3403065800666809,
                "min": -0.3512842059135437,
                "offset": -32,
                "scale": 0.01097763143479824
            },
            {
                "bitwidth": 6,
                "dtype": "int",
                "is_symmetric": "True",
                "max": 0.3417021930217743,
                "min": -0.3527248501777649,
                "offset": -32,
                "scale": 0.011022651568055153
            },
            {
                "bitwidth": 6,
                "dtype": "int",
                "is_symmetric": "True",
                "max": 0.3373258113861084,
                "min": -0.3482072949409485,
                "offset": -32,
                "scale": 0.01088147796690464
            },
            {
                "bitwidth": 6,
                "dtype": "int",
                "is_symmetric": "True",
                "max": 0.33090710639953613,
                "min": -0.3415815234184265,
                "offset": -32,
                "scale": 0.010674422606825829
            },
            {
                "bitwidth": 6,
                "dtype": "int",
                "is_symmetric": "True",
                "max": 0.33443188667297363,
                "min": -0.34521999955177307,
                "offset": -32,
                "scale": 0.010788124985992908
            },
            {
                "bitwidth": 6,
                "dtype": "int",
                "is_symmetric": "True",
                "max": 0.39136940240859985,
                "min": -0.40399423241615295,
                "offset": -32,
                "scale": 0.01262481976300478
            },
            {
                "bitwidth": 6,
                "dtype": "int",
                "is_symmetric": "True",
                "max": 0.3932245373725891,
                "min": -0.4059092104434967,
                "offset": -32,
                "scale": 0.012684662826359272
            },
            {
                "bitwidth": 6,
                "dtype": "int",
                "is_symmetric": "True",
                "max": 0.31416910886764526,
                "min": -0.32430359721183777,
                "offset": -32,
                "scale": 0.01013448741286993
            },
            {
                "bitwidth": 6,
                "dtype": "int",
                "is_symmetric": "True",
                "max": 0.30478635430336,
                "min": -0.31461817026138306,
                "offset": -32,
                "scale": 0.00983181782066822
            },
            {
                "bitwidth": 6,
                "dtype": "int",
                "is_symmetric": "True",
                "max": 0.29532483220100403,
                "min": -0.3048514425754547,
                "offset": -32,
                "scale": 0.00952660758048296
            },
            {
                "bitwidth": 6,
                "dtype": "int",
                "is_symmetric": "True",
                "max": 0.328982412815094,
                "min": -0.3395947515964508,
                "offset": -32,
                "scale": 0.010612335987389088
            },
            {
                "bitwidth": 6,
                "dtype": "int",
                "is_symmetric": "True",
                "max": 0.30245307087898254,
                "min": -0.3122096359729767,
                "offset": -32,
                "scale": 0.009756551124155521
            },
            {
                "bitwidth": 6,
                "dtype": "int",
                "is_symmetric": "True",
                "max": 0.3423527181148529,
                "min": -0.35339635610580444,
                "offset": -32,
                "scale": 0.011043636128306389
            },
            {
                "bitwidth": 6,
                "dtype": "int",
                "is_symmetric": "True",
                "max": 0.38424769043922424,
                "min": -0.3966427743434906,
                "offset": -32,
                "scale": 0.012395086698234081
            },
            {
                "bitwidth": 6,
                "dtype": "int",
                "is_symmetric": "True",
                "max": 0.3558545708656311,
                "min": -0.3673337399959564,
                "offset": -32,
                "scale": 0.011479179374873638
            },
            {
                "bitwidth": 6,
                "dtype": "int",
                "is_symmetric": "True",
                "max": 0.3101590573787689,
                "min": -0.32016417384147644,
                "offset": -32,
                "scale": 0.010005130432546139
            },
            {
                "bitwidth": 6,
                "dtype": "int",
                "is_symmetric": "True",
                "max": 0.3421482443809509,
                "min": -0.3531852960586548,
                "offset": -32,
                "scale": 0.011037040501832962
            },
            {
                "bitwidth": 6,
                "dtype": "int",
                "is_symmetric": "True",
                "max": 0.40567317605018616,
                "min": -0.41875940561294556,
                "offset": -32,
                "scale": 0.013086231425404549
            },
            {
                "bitwidth": 6,
                "dtype": "int",
                "is_symmetric": "True",
                "max": 0.4416474401950836,
                "min": -0.4558941423892975,
                "offset": -32,
                "scale": 0.014246691949665546
            },
            {
                "bitwidth": 6,
                "dtype": "int",
                "is_symmetric": "True",
                "max": 0.3141154944896698,
                "min": -0.3242482542991638,
                "offset": -32,
                "scale": 0.01013275794684887
            },
            {
                "bitwidth": 6,
                "dtype": "int",
                "is_symmetric": "True",
                "max": 0.381893128156662,
                "min": -0.3942122757434845,
                "offset": -32,
                "scale": 0.01231913361698389
            },
            {
                "bitwidth": 6,
                "dtype": "int",
                "is_symmetric": "True",
                "max": 0.3327064514160156,
                "min": -0.34343892335891724,
                "offset": -32,
                "scale": 0.010732466354966164
            },
            {
                "bitwidth": 6,
                "dtype": "int",
                "is_symmetric": "True",
                "max": 0.4032650589942932,
                "min": -0.4162735939025879,
                "offset": -32,
                "scale": 0.013008549809455872
            },
            {
                "bitwidth": 6,
                "dtype": "int",
                "is_symmetric": "True",
                "max": 0.3568015694618225,
                "min": -0.3683112859725952,
                "offset": -32,
                "scale": 0.0115097276866436
            },
            {
                "bitwidth": 6,
                "dtype": "int",
                "is_symmetric": "True",
                "max": 0.4352818429470062,
                "min": -0.44932320713996887,
                "offset": -32,
                "scale": 0.014041350223124027
            },
            {
                "bitwidth": 6,
                "dtype": "int",
                "is_symmetric": "True",
                "max": 0.32089999318122864,
                "min": -0.3312515914440155,
                "offset": -32,
                "scale": 0.010351612232625484
            },
            {
                "bitwidth": 6,
                "dtype": "int",
                "is_symmetric": "True",
                "max": 0.29743871092796326,
                "min": -0.307033509016037,
                "offset": -32,
                "scale": 0.009594797156751156
            },
            {
                "bitwidth": 6,
                "dtype": "int",
                "is_symmetric": "True",
                "max": 0.259594202041626,
                "min": -0.26796820759773254,
                "offset": -32,
                "scale": 0.008374006487429142
            },
            {
                "bitwidth": 6,
                "dtype": "int",
                "is_symmetric": "True",
                "max": 0.3245234191417694,
                "min": -0.3349919021129608,
                "offset": -32,
                "scale": 0.010468496941030025
            },
            {
                "bitwidth": 6,
                "dtype": "int",
                "is_symmetric": "True",
                "max": 0.29510971903800964,
                "min": -0.304629385471344,
                "offset": -32,
                "scale": 0.0095196682959795
            },
            {
                "bitwidth": 6,
                "dtype": "int",
                "is_symmetric": "True",
                "max": 0.3126973509788513,
                "min": -0.3227843642234802,
                "offset": -32,
                "scale": 0.010087011381983757
            },
            {
                "bitwidth": 6,
                "dtype": "int",
                "is_symmetric": "True",
                "max": 0.2422536462545395,
                "min": -0.2500682771205902,
                "offset": -32,
                "scale": 0.007814633660018444
            },
            {
                "bitwidth": 6,
                "dtype": "int",
                "is_symmetric": "True",
                "max": 0.35030272603034973,
                "min": -0.3616028130054474,
                "offset": -32,
                "scale": 0.01130008790642023
            },
            {
                "bitwidth": 6,
                "dtype": "int",
                "is_symmetric": "True",
                "max": 0.3489840030670166,
                "min": -0.360241562128067,
                "offset": -32,
                "scale": 0.011257548816502094
            },
            {
                "bitwidth": 6,
                "dtype": "int",
                "is_symmetric": "True",
                "max": 0.28667256236076355,
                "min": -0.29592007398605347,
                "offset": -32,
                "scale": 0.00924750231206417
            },
            {
                "bitwidth": 6,
                "dtype": "int",
                "is_symmetric": "True",
                "max": 0.2724868059158325,
                "min": -0.2812767028808594,
                "offset": -32,
                "scale": 0.008789896965026855
            },
            {
                "bitwidth": 6,
                "dtype": "int",
                "is_symmetric": "True",
                "max": 0.30672645568847656,
                "min": -0.3166208565235138,
                "offset": -32,
                "scale": 0.009894401766359806
            },
            {
                "bitwidth": 6,
                "dtype": "int",
                "is_symmetric": "True",
                "max": 0.288637638092041,
                "min": -0.29794853925704956,
                "offset": -32,
                "scale": 0.009310891851782799
            },
            {
                "bitwidth": 6,
                "dtype": "int",
                "is_symmetric": "True",
                "max": 0.28566187620162964,
                "min": -0.2948767840862274,
                "offset": -32,
                "scale": 0.009214899502694607
            },
            {
                "bitwidth": 6,
                "dtype": "int",
                "is_symmetric": "True",
                "max": 0.2714216411113739,
                "min": -0.28017717599868774,
                "offset": -32,
                "scale": 0.008755536749958992
            },
            {
                "bitwidth": 6,
                "dtype": "int",
                "is_symmetric": "True",
                "max": 0.4779112637042999,
                "min": -0.4933277666568756,
                "offset": -32,
                "scale": 0.015416492708027363
            },
            {
                "bitwidth": 6,
                "dtype": "int",
                "is_symmetric": "True",
                "max": 0.3153323531150818,
                "min": -0.3255043625831604,
                "offset": -32,
                "scale": 0.010172011330723763
            },
            {
                "bitwidth": 6,
                "dtype": "int",
                "is_symmetric": "True",
                "max": 0.3021296560764313,
                "min": -0.31187576055526733,
                "offset": -32,
                "scale": 0.009746117517352104
            },
            {
                "bitwidth": 6,
                "dtype": "int",
                "is_symmetric": "True",
                "max": 0.29002681374549866,
                "min": -0.2993825078010559,
                "offset": -32,
                "scale": 0.009355703368782997
            },
            {
                "bitwidth": 6,
                "dtype": "int",
                "is_symmetric": "True",
                "max": 0.2758757770061493,
                "min": -0.2847749888896942,
                "offset": -32,
                "scale": 0.008899218402802944
            },
            {
                "bitwidth": 6,
                "dtype": "int",
                "is_symmetric": "True",
                "max": 0.31583142280578613,
                "min": -0.3260195255279541,
                "offset": -32,
                "scale": 0.010188110172748566
            },
            {
                "bitwidth": 6,
                "dtype": "int",
                "is_symmetric": "True",
                "max": 0.3164843022823334,
                "min": -0.32669347524642944,
                "offset": -32,
                "scale": 0.01020917110145092
            },
            {
                "bitwidth": 6,
                "dtype": "int",
                "is_symmetric": "True",
                "max": 0.28265976905822754,
                "min": -0.2917778193950653,
                "offset": -32,
                "scale": 0.00911805685609579
            },
            {
                "bitwidth": 6,
                "dtype": "int",
                "is_symmetric": "True",
                "max": 0.262960821390152,
                "min": -0.2714434266090393,
                "offset": -32,
                "scale": 0.008482607081532478
            },
            {
                "bitwidth": 6,
                "dtype": "int",
                "is_symmetric": "True",
                "max": 0.3301433026790619,
                "min": -0.34079307317733765,
                "offset": -32,
                "scale": 0.010649783536791801
            },
            {
                "bitwidth": 6,
                "dtype": "int",
                "is_symmetric": "True",
                "max": 0.41863057017326355,
                "min": -0.4321347773075104,
                "offset": -32,
                "scale": 0.0135042117908597
            },
            {
                "bitwidth": 6,
                "dtype": "int",
                "is_symmetric": "True",
                "max": 0.264356404542923,
                "min": -0.2728840410709381,
                "offset": -32,
                "scale": 0.008527626283466816
            },
            {
                "bitwidth": 6,
                "dtype": "int",
                "is_symmetric": "True",
                "max": 0.3009102940559387,
                "min": -0.3106170892715454,
                "offset": -32,
                "scale": 0.009706784039735794
            },
            {
                "bitwidth": 6,
                "dtype": "int",
                "is_symmetric": "True",
                "max": 0.32049140334129333,
                "min": -0.33082982897758484,
                "offset": -32,
                "scale": 0.010338432155549526
            },
            {
                "bitwidth": 6,
                "dtype": "int",
                "is_symmetric": "True",
                "max": 0.2908879816532135,
                "min": -0.3002714514732361,
                "offset": -32,
                "scale": 0.009383482858538628
            },
            {
                "bitwidth": 6,
                "dtype": "int",
                "is_symmetric": "True",
                "max": 0.30094483494758606,
                "min": -0.3106527328491211,
                "offset": -32,
                "scale": 0.009707897901535034
            },
            {
                "bitwidth": 6,
                "dtype": "int",
                "is_symmetric": "True",
                "max": 0.28789448738098145,
                "min": -0.2971813976764679,
                "offset": -32,
                "scale": 0.009286918677389622
            },
            {
                "bitwidth": 6,
                "dtype": "int",
                "is_symmetric": "True",
                "max": 0.33604833483695984,
                "min": -0.34688860177993774,
                "offset": -32,
                "scale": 0.010840268805623055
            },
            {
                "bitwidth": 6,
                "dtype": "int",
                "is_symmetric": "True",
                "max": 0.2984757721424103,
                "min": -0.308104008436203,
                "offset": -32,
                "scale": 0.009628250263631344
            },
            {
                "bitwidth": 6,
                "dtype": "int",
                "is_symmetric": "True",
                "max": 0.3511573374271393,
                "min": -0.36248499155044556,
                "offset": -32,
                "scale": 0.011327655985951424
            },
            {
                "bitwidth": 6,
                "dtype": "int",
                "is_symmetric": "True",
                "max": 0.35601797699928284,
                "min": -0.3675024211406708,
                "offset": -32,
                "scale": 0.011484450660645962
            },
            {
                "bitwidth": 6,
                "dtype": "int",
                "is_symmetric": "True",
                "max": 0.3063714802265167,
                "min": -0.3162544369697571,
                "offset": -32,
                "scale": 0.009882951155304909
            },
            {
                "bitwidth": 6,
                "dtype": "int",
                "is_symmetric": "True",
                "max": 0.28860053420066833,
                "min": -0.29791024327278137,
                "offset": -32,
                "scale": 0.009309695102274418
            },
            {
                "bitwidth": 6,
                "dtype": "int",
                "is_symmetric": "True",
                "max": 0.3235662579536438,
                "min": -0.33400386571884155,
                "offset": -32,
                "scale": 0.010437620803713799
            },
            {
                "bitwidth": 6,
                "dtype": "int",
                "is_symmetric": "True",
                "max": 0.2650674879550934,
                "min": -0.27361804246902466,
                "offset": -32,
                "scale": 0.00855056382715702
            },
            {
                "bitwidth": 6,
                "dtype": "int",
                "is_symmetric": "True",
                "max": 0.3220755159854889,
                "min": -0.3324650526046753,
                "offset": -32,
                "scale": 0.010389532893896103
            },
            {
                "bitwidth": 6,
                "dtype": "int",
                "is_symmetric": "True",
                "max": 0.3051772117614746,
                "min": -0.3150216341018677,
                "offset": -32,
                "scale": 0.009844426065683365
            },
            {
                "bitwidth": 6,
                "dtype": "int",
                "is_symmetric": "True",
                "max": 0.2799933850765228,
                "min": -0.2890254259109497,
                "offset": -32,
                "scale": 0.009032044559717178
            },
            {
                "bitwidth": 6,
                "dtype": "int",
                "is_symmetric": "True",
                "max": 0.2745094895362854,
                "min": -0.2833646237850189,
                "offset": -32,
                "scale": 0.008855144493281841
            },
            {
                "bitwidth": 6,
                "dtype": "int",
                "is_symmetric": "True",
                "max": 0.3035764992237091,
                "min": -0.3133693039417267,
                "offset": -32,
                "scale": 0.009792790748178959
            },
            {
                "bitwidth": 6,
                "dtype": "int",
                "is_symmetric": "True",
                "max": 0.2792806923389435,
                "min": -0.28828975558280945,
                "offset": -32,
                "scale": 0.009009054861962795
            },
            {
                "bitwidth": 6,
                "dtype": "int",
                "is_symmetric": "True",
                "max": 0.33223938941955566,
                "min": -0.3429567813873291,
                "offset": -32,
                "scale": 0.010717399418354034
            },
            {
                "bitwidth": 6,
                "dtype": "int",
                "is_symmetric": "True",
                "max": 0.31404799222946167,
                "min": -0.3241785764694214,
                "offset": -32,
                "scale": 0.010130580514669418
            },
            {
                "bitwidth": 6,
                "dtype": "int",
                "is_symmetric": "True",
                "max": 0.299512654542923,
                "min": -0.3091743588447571,
                "offset": -32,
                "scale": 0.009661698713898659
            },
            {
                "bitwidth": 6,
                "dtype": "int",
                "is_symmetric": "True",
                "max": 0.32013195753097534,
                "min": -0.33045879006385803,
                "offset": -32,
                "scale": 0.010326837189495564
            },
            {
                "bitwidth": 6,
                "dtype": "int",
                "is_symmetric": "True",
                "max": 0.2684977650642395,
                "min": -0.2771589756011963,
                "offset": -32,
                "scale": 0.008661217987537384
            },
            {
                "bitwidth": 6,
                "dtype": "int",
                "is_symmetric": "True",
                "max": 0.2505291700363159,
                "min": -0.2586107552051544,
                "offset": -32,
                "scale": 0.008081586100161076
            },
            {
                "bitwidth": 6,
                "dtype": "int",
                "is_symmetric": "True",
                "max": 0.30677902698516846,
                "min": -0.3166751265525818,
                "offset": -32,
                "scale": 0.00989609770476818
            },
            {
                "bitwidth": 6,
                "dtype": "int",
                "is_symmetric": "True",
                "max": 0.33996012806892395,
                "min": -0.35092657804489136,
                "offset": -32,
                "scale": 0.010966455563902855
            },
            {
                "bitwidth": 6,
                "dtype": "int",
                "is_symmetric": "True",
                "max": 0.24899129569530487,
                "min": -0.25702327489852905,
                "offset": -32,
                "scale": 0.008031977340579033
            },
            {
                "bitwidth": 6,
                "dtype": "int",
                "is_symmetric": "True",
                "max": 0.3032049238681793,
                "min": -0.31298571825027466,
                "offset": -32,
                "scale": 0.009780803695321083
            },
            {
                "bitwidth": 6,
                "dtype": "int",
                "is_symmetric": "True",
                "max": 0.25240620970726013,
                "min": -0.26054835319519043,
                "offset": -32,
                "scale": 0.008142136037349701
            },
            {
                "bitwidth": 6,
                "dtype": "int",
                "is_symmetric": "True",
                "max": 0.30528685450553894,
                "min": -0.31513482332229614,
                "offset": -32,
                "scale": 0.009847963228821754
            },
            {
                "bitwidth": 6,
                "dtype": "int",
                "is_symmetric": "True",
                "max": 0.28427791595458984,
                "min": -0.29344817996025085,
                "offset": -32,
                "scale": 0.00917025562375784
            },
            {
                "bitwidth": 6,
                "dtype": "int",
                "is_symmetric": "True",
                "max": 0.4436737596988678,
                "min": -0.4579858183860779,
                "offset": -32,
                "scale": 0.014312056824564934
            },
            {
                "bitwidth": 6,
                "dtype": "int",
                "is_symmetric": "True",
                "max": 0.3056040108203888,
                "min": -0.315462201833725,
                "offset": -32,
                "scale": 0.009858193807303905
            },
            {
                "bitwidth": 6,
                "dtype": "int",
                "is_symmetric": "True",
                "max": 0.4431588649749756,
                "min": -0.4574543237686157,
                "offset": -32,
                "scale": 0.014295447617769241
            },
            {
                "bitwidth": 6,
                "dtype": "int",
                "is_symmetric": "True",
                "max": 0.24229907989501953,
                "min": -0.25011518597602844,
                "offset": -32,
                "scale": 0.007816099561750889
            },
            {
                "bitwidth": 6,
                "dtype": "int",
                "is_symmetric": "True",
                "max": 0.3538912236690521,
                "min": -0.3653070628643036,
                "offset": -32,
                "scale": 0.011415845714509487
            },
            {
                "bitwidth": 6,
                "dtype": "int",
                "is_symmetric": "True",
                "max": 0.3169585168361664,
                "min": -0.32718297839164734,
                "offset": -32,
                "scale": 0.01022446807473898
            },
            {
                "bitwidth": 6,
                "dtype": "int",
                "is_symmetric": "True",
                "max": 0.3703262209892273,
                "min": -0.38227224349975586,
                "offset": -32,
                "scale": 0.01194600760936737
            },
            {
                "bitwidth": 6,
                "dtype": "int",
                "is_symmetric": "True",
                "max": 0.3161569833755493,
                "min": -0.32635560631752014,
                "offset": -32,
                "scale": 0.010198612697422504
            },
            {
                "bitwidth": 6,
                "dtype": "int",
                "is_symmetric": "True",
                "max": 0.3297397494316101,
                "min": -0.34037652611732483,
                "offset": -32,
                "scale": 0.010636766441166401
            },
            {
                "bitwidth": 6,
                "dtype": "int",
                "is_symmetric": "True",
                "max": 0.2944813072681427,
                "min": -0.3039807081222534,
                "offset": -32,
                "scale": 0.00949939712882042
            },
            {
                "bitwidth": 6,
                "dtype": "int",
                "is_symmetric": "True",
                "max": 0.3325846493244171,
                "min": -0.34331318736076355,
                "offset": -32,
                "scale": 0.010728537105023861
            },
            {
                "bitwidth": 6,
                "dtype": "int",
                "is_symmetric": "True",
                "max": 0.3752496838569641,
                "min": -0.3873545229434967,
                "offset": -32,
                "scale": 0.012104828841984272
            },
            {
                "bitwidth": 6,
                "dtype": "int",
                "is_symmetric": "True",
                "max": 0.28332191705703735,
                "min": -0.2924613356590271,
                "offset": -32,
                "scale": 0.009139416739344597
            },
            {
                "bitwidth": 6,
                "dtype": "int",
                "is_symmetric": "True",
                "max": 0.2730531692504883,
                "min": -0.2818613350391388,
                "offset": -32,
                "scale": 0.008808166719973087
            },
            {
                "bitwidth": 6,
                "dtype": "int",
                "is_symmetric": "True",
                "max": 0.3087778091430664,
                "min": -0.3187383711338043,
                "offset": -32,
                "scale": 0.009960574097931385
            },
            {
                "bitwidth": 6,
                "dtype": "int",
                "is_symmetric": "True",
                "max": 0.24594929814338684,
                "min": -0.25388315320014954,
                "offset": -32,
                "scale": 0.007933848537504673
            },
            {
                "bitwidth": 6,
                "dtype": "int",
                "is_symmetric": "True",
                "max": 0.30057987570762634,
                "min": -0.31027600169181824,
                "offset": -32,
                "scale": 0.00969612505286932
            },
            {
                "bitwidth": 6,
                "dtype": "int",
                "is_symmetric": "True",
                "max": 0.287219762802124,
                "min": -0.29648491740226746,
                "offset": -32,
                "scale": 0.009265153668820858
            },
            {
                "bitwidth": 6,
                "dtype": "int",
                "is_symmetric": "True",
                "max": 0.37302929162979126,
                "min": -0.38506248593330383,
                "offset": -32,
                "scale": 0.012033202685415745
            },
            {
                "bitwidth": 6,
                "dtype": "int",
                "is_symmetric": "True",
                "max": 0.2828003764152527,
                "min": -0.2919229567050934,
                "offset": -32,
                "scale": 0.009122592397034168
            },
            {
                "bitwidth": 6,
                "dtype": "int",
                "is_symmetric": "True",
                "max": 0.32689881324768066,
                "min": -0.3374439477920532,
                "offset": -32,
                "scale": 0.010545123368501663
            },
            {
                "bitwidth": 6,
                "dtype": "int",
                "is_symmetric": "True",
                "max": 0.2920307219028473,
                "min": -0.30145105719566345,
                "offset": -32,
                "scale": 0.009420345537364483
            },
            {
                "bitwidth": 6,
                "dtype": "int",
                "is_symmetric": "True",
                "max": 0.3472238779067993,
                "min": -0.35842466354370117,
                "offset": -32,
                "scale": 0.011200770735740662
            },
            {
                "bitwidth": 6,
                "dtype": "int",
                "is_symmetric": "True",
                "max": 0.3884470462799072,
                "min": -0.40097761154174805,
                "offset": -32,
                "scale": 0.012530550360679626
            },
            {
                "bitwidth": 6,
                "dtype": "int",
                "is_symmetric": "True",
                "max": 0.29690471291542053,
                "min": -0.3064822852611542,
                "offset": -32,
                "scale": 0.009577571414411068
            },
            {
                "bitwidth": 6,
                "dtype": "int",
                "is_symmetric": "True",
                "max": 0.30497822165489197,
                "min": -0.3148162364959717,
                "offset": -32,
                "scale": 0.009838007390499115
            },
            {
                "bitwidth": 6,
                "dtype": "int",
                "is_symmetric": "True",
                "max": 0.37541088461875916,
                "min": -0.3875209093093872,
                "offset": -32,
                "scale": 0.01211002841591835
            },
            {
                "bitwidth": 6,
                "dtype": "int",
                "is_symmetric": "True",
                "max": 0.28302013874053955,
                "min": -0.2921498119831085,
                "offset": -32,
                "scale": 0.009129681624472141
            },
            {
                "bitwidth": 6,
                "dtype": "int",
                "is_symmetric": "True",
                "max": 0.3729097545146942,
                "min": -0.3849391043186188,
                "offset": -32,
                "scale": 0.012029347009956837
            },
            {
                "bitwidth": 6,
                "dtype": "int",
                "is_symmetric": "True",
                "max": 0.3778229355812073,
                "min": -0.3900107741355896,
                "offset": -32,
                "scale": 0.012187836691737175
            },
            {
                "bitwidth": 6,
                "dtype": "int",
                "is_symmetric": "True",
                "max": 0.3657194674015045,
                "min": -0.37751686573028564,
                "offset": -32,
                "scale": 0.011797402054071426
            },
            {
                "bitwidth": 6,
                "dtype": "int",
                "is_symmetric": "True",
                "max": 0.3658478558063507,
                "min": -0.3776493966579437,
                "offset": -32,
                "scale": 0.011801543645560741
            },
            {
                "bitwidth": 6,
                "dtype": "int",
                "is_symmetric": "True",
                "max": 0.36942917108535767,
                "min": -0.3813462257385254,
                "offset": -32,
                "scale": 0.011917069554328918
            },
            {
                "bitwidth": 6,
                "dtype": "int",
                "is_symmetric": "True",
                "max": 0.3376561999320984,
                "min": -0.3485483229160309,
                "offset": -32,
                "scale": 0.010892135091125965
            },
            {
                "bitwidth": 6,
                "dtype": "int",
                "is_symmetric": "True",
                "max": 0.31018030643463135,
                "min": -0.3201861083507538,
                "offset": -32,
                "scale": 0.010005815885961056
            },
            {
                "bitwidth": 6,
                "dtype": "int",
                "is_symmetric": "True",
                "max": 0.28452011942863464,
                "min": -0.29369819164276123,
                "offset": -32,
                "scale": 0.009178068488836288
            },
            {
                "bitwidth": 6,
                "dtype": "int",
                "is_symmetric": "True",
                "max": 0.3011094033718109,
                "min": -0.31082260608673096,
                "offset": -32,
                "scale": 0.009713206440210342
            },
            {
                "bitwidth": 6,
                "dtype": "int",
                "is_symmetric": "True",
                "max": 0.289259672164917,
                "min": -0.29859063029289246,
                "offset": -32,
                "scale": 0.00933095719665289
            },
            {
                "bitwidth": 6,
                "dtype": "int",
                "is_symmetric": "True",
                "max": 0.27766942977905273,
                "min": -0.28662651777267456,
                "offset": -32,
                "scale": 0.00895707868039608
            },
            {
                "bitwidth": 6,
                "dtype": "int",
                "is_symmetric": "True",
                "max": 0.3032394051551819,
                "min": -0.31302133202552795,
                "offset": -32,
                "scale": 0.009781916625797749
            },
            {
                "bitwidth": 6,
                "dtype": "int",
                "is_symmetric": "True",
                "max": 0.36992621421813965,
                "min": -0.38185930252075195,
                "offset": -32,
                "scale": 0.011933103203773499
            },
            {
                "bitwidth": 6,
                "dtype": "int",
                "is_symmetric": "True",
                "max": 0.29124122858047485,
                "min": -0.3006361126899719,
                "offset": -32,
                "scale": 0.009394878521561623
            },
            {
                "bitwidth": 6,
                "dtype": "int",
                "is_symmetric": "True",
                "max": 0.3517271876335144,
                "min": -0.3630732297897339,
                "offset": -32,
                "scale": 0.011346038430929184
            },
            {
                "bitwidth": 6,
                "dtype": "int",
                "is_symmetric": "True",
                "max": 0.30269598960876465,
                "min": -0.31246036291122437,
                "offset": -32,
                "scale": 0.009764386340975761
            },
            {
                "bitwidth": 6,
                "dtype": "int",
                "is_symmetric": "True",
                "max": 0.26450204849243164,
                "min": -0.27303436398506165,
                "offset": -32,
                "scale": 0.008532323874533176
            },
            {
                "bitwidth": 6,
                "dtype": "int",
                "is_symmetric": "True",
                "max": 0.43560120463371277,
                "min": -0.44965285062789917,
                "offset": -32,
                "scale": 0.014051651582121849
            },
            {
                "bitwidth": 6,
                "dtype": "int",
                "is_symmetric": "True",
                "max": 0.34115543961524963,
                "min": -0.3521604537963867,
                "offset": -32,
                "scale": 0.011005014181137085
            },
            {
                "bitwidth": 6,
                "dtype": "int",
                "is_symmetric": "True",
                "max": 0.259843111038208,
                "min": -0.26822513341903687,
                "offset": -32,
                "scale": 0.008382035419344902
            },
            {
                "bitwidth": 6,
                "dtype": "int",
                "is_symmetric": "True",
                "max": 0.3086138665676117,
                "min": -0.318569153547287,
                "offset": -32,
                "scale": 0.009955286048352718
            },
            {
                "bitwidth": 6,
                "dtype": "int",
                "is_symmetric": "True",
                "max": 0.30284520983695984,
                "min": -0.31261441111564636,
                "offset": -32,
                "scale": 0.009769200347363949
            },
            {
                "bitwidth": 6,
                "dtype": "int",
                "is_symmetric": "True",
                "max": 0.33846980333328247,
                "min": -0.3493881821632385,
                "offset": -32,
                "scale": 0.010918380692601204
            },
            {
                "bitwidth": 6,
                "dtype": "int",
                "is_symmetric": "True",
                "max": 0.2841828465461731,
                "min": -0.2933500409126282,
                "offset": -32,
                "scale": 0.00916718877851963
            },
            {
                "bitwidth": 6,
                "dtype": "int",
                "is_symmetric": "True",
                "max": 0.37460973858833313,
                "min": -0.38669392466545105,
                "offset": -32,
                "scale": 0.012084185145795345
            },
            {
                "bitwidth": 6,
                "dtype": "int",
                "is_symmetric": "True",
                "max": 0.3369627296924591,
                "min": -0.34783250093460083,
                "offset": -32,
                "scale": 0.010869765654206276
            },
            {
                "bitwidth": 6,
                "dtype": "int",
                "is_symmetric": "True",
                "max": 0.2789480984210968,
                "min": -0.2879464328289032,
                "offset": -32,
                "scale": 0.008998326025903225
            },
            {
                "bitwidth": 6,
                "dtype": "int",
                "is_symmetric": "True",
                "max": 0.2913336157798767,
                "min": -0.30073148012161255,
                "offset": -32,
                "scale": 0.009397858753800392
            },
            {
                "bitwidth": 6,
                "dtype": "int",
                "is_symmetric": "True",
                "max": 0.3868482708930969,
                "min": -0.39932724833488464,
                "offset": -32,
                "scale": 0.012478976510465145
            },
            {
                "bitwidth": 6,
                "dtype": "int",
                "is_symmetric": "True",
                "max": 0.3183058500289917,
                "min": -0.3285737931728363,
                "offset": -32,
                "scale": 0.010267931036651134
            },
            {
                "bitwidth": 6,
                "dtype": "int",
                "is_symmetric": "True",
                "max": 0.3709207773208618,
                "min": -0.38288596272468567,
                "offset": -32,
                "scale": 0.011965186335146427
            },
            {
                "bitwidth": 6,
                "dtype": "int",
                "is_symmetric": "True",
                "max": 0.4566178619861603,
                "min": -0.47134748101234436,
                "offset": -32,
                "scale": 0.014729608781635761
            },
            {
                "bitwidth": 6,
                "dtype": "int",
                "is_symmetric": "True",
                "max": 0.31392014026641846,
                "min": -0.32404661178588867,
                "offset": -32,
                "scale": 0.010126456618309021
            },
            {
                "bitwidth": 6,
                "dtype": "int",
                "is_symmetric": "True",
                "max": 0.2370997667312622,
                "min": -0.24474814534187317,
                "offset": -32,
                "scale": 0.0076483795419335365
            },
            {
                "bitwidth": 6,
                "dtype": "int",
                "is_symmetric": "True",
                "max": 0.25761672854423523,
                "min": -0.26592695713043213,
                "offset": -32,
                "scale": 0.008310217410326004
            },
            {
                "bitwidth": 6,
                "dtype": "int",
                "is_symmetric": "True",
                "max": 0.3469327688217163,
                "min": -0.35812413692474365,
                "offset": -32,
                "scale": 0.01119137927889824
            },
            {
                "bitwidth": 6,
                "dtype": "int",
                "is_symmetric": "True",
