{
    "param_encodings": {
        "conv1.weight": [
            {
                "bitwidth": 2,
                "dtype": "int",
                "is_symmetric": "True",
                "max": 0.09688612818717957,
                "min": -0.19377225637435913,
                "offset": -2,
                "scale": 0.09688612818717957
            },
            {
                "bitwidth": 2,
                "dtype": "int",
                "is_symmetric": "True",
                "max": 0.02136022225022316,
                "min": -0.04272044450044632,
                "offset": -2,
                "scale": 0.02136022225022316
            },
            {
                "bitwidth": 2,
                "dtype": "int",
                "is_symmetric": "True",
                "max": 1.1920928955078125e-07,
                "min": -2.384185791015625e-07,
                "offset": -2,
                "scale": 1.1920928955078125e-07
            },
            {
                "bitwidth": 2,
                "dtype": "int",
                "is_symmetric": "True",
                "max": 0.019422492012381554,
                "min": -0.03884498402476311,
                "offset": -2,
                "scale": 0.019422492012381554
            },
            {
                "bitwidth": 2,
                "dtype": "int",
                "is_symmetric": "True",
                "max": 1.1920928955078125e-07,
                "min": -2.384185791015625e-07,
                "offset": -2,
                "scale": 1.1920928955078125e-07
            },
            {
                "bitwidth": 2,
                "dtype": "int",
                "is_symmetric": "True",
                "max": 0.06517373025417328,
                "min": -0.13034746050834656,
                "offset": -2,
                "scale": 0.06517373025417328
            },
            {
                "bitwidth": 2,
                "dtype": "int",
                "is_symmetric": "True",
                "max": 0.04741067811846733,
                "min": -0.09482135623693466,
                "offset": -2,
                "scale": 0.04741067811846733
            },
            {
                "bitwidth": 2,
                "dtype": "int",
                "is_symmetric": "True",
                "max": 1.1920928955078125e-07,
                "min": -2.384185791015625e-07,
                "offset": -2,
                "scale": 1.1920928955078125e-07
            },
            {
                "bitwidth": 2,
                "dtype": "int",
                "is_symmetric": "True",
                "max": 0.09921915829181671,
                "min": -0.19843831658363342,
                "offset": -2,
                "scale": 0.09921915829181671
            },
            {
                "bitwidth": 2,
                "dtype": "int",
                "is_symmetric": "True",
                "max": 1.1920928955078125e-07,
                "min": -2.384185791015625e-07,
                "offset": -2,
                "scale": 1.1920928955078125e-07
            },
            {
                "bitwidth": 2,
                "dtype": "int",
                "is_symmetric": "True",
                "max": 0.04780244082212448,
                "min": -0.09560488164424896,
                "offset": -2,
                "scale": 0.04780244082212448
            },
            {
                "bitwidth": 2,
                "dtype": "int",
                "is_symmetric": "True",
                "max": 0.04166858643293381,
                "min": -0.08333717286586761,
                "offset": -2,
                "scale": 0.04166858643293381
            },
            {
                "bitwidth": 2,
                "dtype": "int",
                "is_symmetric": "True",
                "max": 0.012887726537883282,
                "min": -0.025775453075766563,
                "offset": -2,
                "scale": 0.012887726537883282
            },
            {
                "bitwidth": 2,
                "dtype": "int",
                "is_symmetric": "True",
                "max": 1.1920928955078125e-07,
                "min": -2.384185791015625e-07,
                "offset": -2,
                "scale": 1.1920928955078125e-07
            },
            {
                "bitwidth": 2,
                "dtype": "int",
                "is_symmetric": "True",
                "max": 0.012697216123342514,
                "min": -0.025394432246685028,
                "offset": -2,
                "scale": 0.012697216123342514
            },
            {
                "bitwidth": 2,
                "dtype": "int",
                "is_symmetric": "True",
                "max": 0.10145846009254456,
                "min": -0.2029169201850891,
                "offset": -2,
                "scale": 0.10145846009254456
            },
            {
                "bitwidth": 2,
                "dtype": "int",
                "is_symmetric": "True",
                "max": 0.022054262459278107,
                "min": -0.04410852491855621,
                "offset": -2,
                "scale": 0.022054262459278107
            },
            {
                "bitwidth": 2,
                "dtype": "int",
                "is_symmetric": "True",
                "max": 0.008178645744919777,
                "min": -0.016357291489839554,
                "offset": -2,
                "scale": 0.008178645744919777
            },
            {
                "bitwidth": 2,
                "dtype": "int",
                "is_symmetric": "True",
                "max": 0.05271727964282036,
                "min": -0.10543455928564072,
                "offset": -2,
                "scale": 0.05271727964282036
            },
            {
                "bitwidth": 2,
                "dtype": "int",
                "is_symmetric": "True",
                "max": 0.008791772648692131,
                "min": -0.017583545297384262,
                "offset": -2,
                "scale": 0.008791772648692131
            },
            {
                "bitwidth": 2,
                "dtype": "int",
                "is_symmetric": "True",
                "max": 0.02921462431550026,
                "min": -0.05842924863100052,
                "offset": -2,
                "scale": 0.02921462431550026
            },
            {
                "bitwidth": 2,
                "dtype": "int",
                "is_symmetric": "True",
                "max": 0.007193917408585548,
                "min": -0.014387834817171097,
                "offset": -2,
                "scale": 0.007193917408585548
            },
            {
                "bitwidth": 2,
                "dtype": "int",
                "is_symmetric": "True",
                "max": 0.016013916581869125,
                "min": -0.03202783316373825,
                "offset": -2,
                "scale": 0.016013916581869125
            },
            {
                "bitwidth": 2,
                "dtype": "int",
                "is_symmetric": "True",
                "max": 0.10684511065483093,
                "min": -0.21369022130966187,
                "offset": -2,
                "scale": 0.10684511065483093
            },
            {
                "bitwidth": 2,
                "dtype": "int",
                "is_symmetric": "True",
                "max": 0.189060240983963,
                "min": -0.378120481967926,
                "offset": -2,
                "scale": 0.189060240983963
            },
            {
                "bitwidth": 2,
                "dtype": "int",
                "is_symmetric": "True",
                "max": 0.02086954191327095,
                "min": -0.0417390838265419,
                "offset": -2,
                "scale": 0.02086954191327095
            },
            {
                "bitwidth": 2,
                "dtype": "int",
                "is_symmetric": "True",
                "max": 0.011872855946421623,
                "min": -0.023745711892843246,
                "offset": -2,
                "scale": 0.011872855946421623
            },
            {
                "bitwidth": 2,
                "dtype": "int",
                "is_symmetric": "True",
                "max": 0.013593403622508049,
                "min": -0.027186807245016098,
                "offset": -2,
                "scale": 0.013593403622508049
            },
            {
                "bitwidth": 2,
                "dtype": "int",
                "is_symmetric": "True",
                "max": 0.051854148507118225,
                "min": -0.10370829701423645,
                "offset": -2,
                "scale": 0.051854148507118225
            },
            {
                "bitwidth": 2,
                "dtype": "int",
                "is_symmetric": "True",
                "max": 0.04303980991244316,
                "min": -0.08607961982488632,
                "offset": -2,
                "scale": 0.04303980991244316
            },
            {
                "bitwidth": 2,
                "dtype": "int",
                "is_symmetric": "True",
                "max": 0.06972594559192657,
                "min": -0.13945189118385315,
                "offset": -2,
                "scale": 0.06972594559192657
            },
            {
                "bitwidth": 2,
                "dtype": "int",
                "is_symmetric": "True",
                "max": 0.03144567459821701,
                "min": -0.06289134919643402,
                "offset": -2,
                "scale": 0.03144567459821701
            },
            {
                "bitwidth": 2,
                "dtype": "int",
                "is_symmetric": "True",
                "max": 0.017488252371549606,
                "min": -0.03497650474309921,
                "offset": -2,
                "scale": 0.017488252371549606
            },
            {
                "bitwidth": 2,
                "dtype": "int",
                "is_symmetric": "True",
                "max": 0.0577554814517498,
                "min": -0.1155109629034996,
                "offset": -2,
                "scale": 0.0577554814517498
            },
            {
                "bitwidth": 2,
                "dtype": "int",
                "is_symmetric": "True",
                "max": 0.03246695548295975,
                "min": -0.0649339109659195,
                "offset": -2,
                "scale": 0.03246695548295975
            },
            {
                "bitwidth": 2,
                "dtype": "int",
                "is_symmetric": "True",
                "max": 0.014514199458062649,
                "min": -0.029028398916125298,
                "offset": -2,
                "scale": 0.014514199458062649
            },
            {
                "bitwidth": 2,
                "dtype": "int",
                "is_symmetric": "True",
                "max": 1.1920928955078125e-07,
                "min": -2.384185791015625e-07,
                "offset": -2,
                "scale": 1.1920928955078125e-07
            },
            {
                "bitwidth": 2,
                "dtype": "int",
                "is_symmetric": "True",
                "max": 0.02518295869231224,
                "min": -0.05036591738462448,
                "offset": -2,
                "scale": 0.02518295869231224
            },
            {
                "bitwidth": 2,
                "dtype": "int",
                "is_symmetric": "True",
                "max": 1.1920928955078125e-07,
                "min": -2.384185791015625e-07,
                "offset": -2,
                "scale": 1.1920928955078125e-07
            },
            {
                "bitwidth": 2,
                "dtype": "int",
                "is_symmetric": "True",
                "max": 0.16518601775169373,
                "min": -0.33037203550338745,
                "offset": -2,
                "scale": 0.16518601775169373
            },
            {
                "bitwidth": 2,
                "dtype": "int",
                "is_symmetric": "True",
                "max": 0.1637028306722641,
                "min": -0.3274056613445282,
                "offset": -2,
                "scale": 0.1637028306722641
            },
            {
                "bitwidth": 2,
                "dtype": "int",
                "is_symmetric": "True",
                "max": 0.09988000243902206,
                "min": -0.19976000487804413,
                "offset": -2,
                "scale": 0.09988000243902206
            },
            {
                "bitwidth": 2,
                "dtype": "int",
                "is_symmetric": "True",
                "max": 0.08319637179374695,
                "min": -0.1663927435874939,
                "offset": -2,
                "scale": 0.08319637179374695
            },
            {
                "bitwidth": 2,
                "dtype": "int",
                "is_symmetric": "True",
                "max": 0.05294221639633179,
                "min": -0.10588443279266357,
                "offset": -2,
                "scale": 0.05294221639633179
            },
            {
                "bitwidth": 2,
                "dtype": "int",
                "is_symmetric": "True",
                "max": 0.05210834741592407,
                "min": -0.10421669483184814,
                "offset": -2,
                "scale": 0.05210834741592407
            },
            {
                "bitwidth": 2,
                "dtype": "int",
                "is_symmetric": "True",
                "max": 0.015132365748286247,
                "min": -0.030264731496572495,
                "offset": -2,
                "scale": 0.015132365748286247
            },
            {
                "bitwidth": 2,
                "dtype": "int",
                "is_symmetric": "True",
                "max": 0.009827861562371254,
                "min": -0.019655723124742508,
                "offset": -2,
                "scale": 0.009827861562371254
            },
            {
                "bitwidth": 2,
                "dtype": "int",
                "is_symmetric": "True",
                "max": 0.10760240256786346,
                "min": -0.21520480513572693,
                "offset": -2,
                "scale": 0.10760240256786346
            },
            {
                "bitwidth": 2,
                "dtype": "int",
                "is_symmetric": "True",
                "max": 1.1920928955078125e-07,
                "min": -2.384185791015625e-07,
                "offset": -2,
                "scale": 1.1920928955078125e-07
            },
            {
                "bitwidth": 2,
                "dtype": "int",
                "is_symmetric": "True",
                "max": 0.06473802030086517,
                "min": -0.12947604060173035,
                "offset": -2,
                "scale": 0.06473802030086517
            },
            {
                "bitwidth": 2,
                "dtype": "int",
                "is_symmetric": "True",
                "max": 0.12333642691373825,
                "min": -0.2466728538274765,
                "offset": -2,
                "scale": 0.12333642691373825
            },
            {
                "bitwidth": 2,
                "dtype": "int",
                "is_symmetric": "True",
                "max": 0.04642503708600998,
                "min": -0.09285007417201996,
                "offset": -2,
                "scale": 0.04642503708600998
            },
            {
                "bitwidth": 2,
                "dtype": "int",
                "is_symmetric": "True",
                "max": 0.035826411098241806,
                "min": -0.07165282219648361,
                "offset": -2,
                "scale": 0.035826411098241806
            },
            {
                "bitwidth": 2,
                "dtype": "int",
                "is_symmetric": "True",
                "max": 0.17976686358451843,
                "min": -0.35953372716903687,
                "offset": -2,
                "scale": 0.17976686358451843
            },
            {
                "bitwidth": 2,
                "dtype": "int",
                "is_symmetric": "True",
                "max": 0.005631485488265753,
                "min": -0.011262970976531506,
                "offset": -2,
                "scale": 0.005631485488265753
            },
            {
                "bitwidth": 2,
                "dtype": "int",
                "is_symmetric": "True",
                "max": 0.08394228667020798,
                "min": -0.16788457334041595,
                "offset": -2,
                "scale": 0.08394228667020798
            },
            {
                "bitwidth": 2,
                "dtype": "int",
                "is_symmetric": "True",
                "max": 0.021497290581464767,
                "min": -0.042994581162929535,
                "offset": -2,
                "scale": 0.021497290581464767
            },
            {
                "bitwidth": 2,
                "dtype": "int",
                "is_symmetric": "True",
                "max": 0.012314168736338615,
                "min": -0.02462833747267723,
                "offset": -2,
                "scale": 0.012314168736338615
            },
            {
                "bitwidth": 2,
                "dtype": "int",
                "is_symmetric": "True",
                "max": 0.024797221645712852,
                "min": -0.049594443291425705,
                "offset": -2,
                "scale": 0.024797221645712852
            },
            {
                "bitwidth": 2,
                "dtype": "int",
                "is_symmetric": "True",
                "max": 0.0851505920290947,
                "min": -0.1703011840581894,
                "offset": -2,
                "scale": 0.0851505920290947
            },
            {
                "bitwidth": 2,
                "dtype": "int",
                "is_symmetric": "True",
                "max": 0.04239409789443016,
                "min": -0.08478819578886032,
                "offset": -2,
                "scale": 0.04239409789443016
            },
            {
                "bitwidth": 2,
                "dtype": "int",
                "is_symmetric": "True",
                "max": 0.005327933933585882,
                "min": -0.010655867867171764,
                "offset": -2,
                "scale": 0.005327933933585882
            },
            {
                "bitwidth": 2,
                "dtype": "int",
                "is_symmetric": "True",
                "max": 0.013153761625289917,
                "min": -0.026307523250579834,
                "offset": -2,
                "scale": 0.013153761625289917
            },
            {
                "bitwidth": 2,
                "dtype": "int",
                "is_symmetric": "True",
                "max": 0.05037714168429375,
                "min": -0.1007542833685875,
                "offset": -2,
                "scale": 0.05037714168429375
            }
        ],
        "fc.weight": [
            {
                "bitwidth": 2,
                "dtype": "int",
                "is_symmetric": "True",
                "max": 0.17520925402641296,
                "min": -0.3504185080528259,
                "offset": -2,
                "scale": 0.17520925402641296
            },
            {
                "bitwidth": 2,
                "dtype": "int",
                "is_symmetric": "True",
                "max": 0.16639529168605804,
                "min": -0.3327905833721161,
                "offset": -2,
                "scale": 0.16639529168605804
            },
            {
                "bitwidth": 2,
                "dtype": "int",
                "is_symmetric": "True",
                "max": 0.14869019389152527,
                "min": -0.29738038778305054,
                "offset": -2,
                "scale": 0.14869019389152527
            },
            {
                "bitwidth": 2,
                "dtype": "int",
                "is_symmetric": "True",
                "max": 0.12893164157867432,
                "min": -0.25786328315734863,
                "offset": -2,
                "scale": 0.12893164157867432
            },
            {
                "bitwidth": 2,
                "dtype": "int",
                "is_symmetric": "True",
                "max": 0.12913641333580017,
                "min": -0.25827282667160034,
                "offset": -2,
                "scale": 0.12913641333580017
            },
            {
                "bitwidth": 2,
                "dtype": "int",
                "is_symmetric": "True",
                "max": 0.13841629028320312,
                "min": -0.27683258056640625,
                "offset": -2,
                "scale": 0.13841629028320312
            },
            {
                "bitwidth": 2,
                "dtype": "int",
                "is_symmetric": "True",
                "max": 0.15380190312862396,
                "min": -0.3076038062572479,
                "offset": -2,
                "scale": 0.15380190312862396
            },
            {
                "bitwidth": 2,
                "dtype": "int",
                "is_symmetric": "True",
                "max": 0.14308205246925354,
                "min": -0.2861641049385071,
                "offset": -2,
                "scale": 0.14308205246925354
            },
            {
                "bitwidth": 2,
                "dtype": "int",
                "is_symmetric": "True",
                "max": 0.122881218791008,
                "min": -0.245762437582016,
                "offset": -2,
                "scale": 0.122881218791008
            },
            {
                "bitwidth": 2,
                "dtype": "int",
                "is_symmetric": "True",
                "max": 0.1795782744884491,
                "min": -0.3591565489768982,
                "offset": -2,
                "scale": 0.1795782744884491
            },
            {
                "bitwidth": 2,
                "dtype": "int",
                "is_symmetric": "True",
                "max": 0.14021530747413635,
                "min": -0.2804306149482727,
                "offset": -2,
                "scale": 0.14021530747413635
            },
            {
                "bitwidth": 2,
                "dtype": "int",
                "is_symmetric": "True",
                "max": 0.1410275101661682,
                "min": -0.2820550203323364,
                "offset": -2,
                "scale": 0.1410275101661682
            },
            {
                "bitwidth": 2,
                "dtype": "int",
                "is_symmetric": "True",
                "max": 0.12390610575675964,
                "min": -0.2478122115135193,
                "offset": -2,
                "scale": 0.12390610575675964
            },
            {
                "bitwidth": 2,
                "dtype": "int",
                "is_symmetric": "True",
                "max": 0.13808324933052063,
                "min": -0.27616649866104126,
                "offset": -2,
                "scale": 0.13808324933052063
            },
            {
                "bitwidth": 2,
                "dtype": "int",
                "is_symmetric": "True",
                "max": 0.23011188209056854,
                "min": -0.4602237641811371,
                "offset": -2,
                "scale": 0.23011188209056854
            },
            {
                "bitwidth": 2,
                "dtype": "int",
                "is_symmetric": "True",
                "max": 0.17302104830741882,
                "min": -0.34604209661483765,
                "offset": -2,
                "scale": 0.17302104830741882
            },
            {
                "bitwidth": 2,
                "dtype": "int",
                "is_symmetric": "True",
                "max": 0.13809776306152344,
                "min": -0.2761955261230469,
                "offset": -2,
                "scale": 0.13809776306152344
            },
            {
                "bitwidth": 2,
                "dtype": "int",
                "is_symmetric": "True",
                "max": 0.1279619038105011,
                "min": -0.2559238076210022,
                "offset": -2,
                "scale": 0.1279619038105011
            },
            {
                "bitwidth": 2,
                "dtype": "int",
                "is_symmetric": "True",
                "max": 0.13492713868618011,
                "min": -0.26985427737236023,
                "offset": -2,
                "scale": 0.13492713868618011
            },
            {
                "bitwidth": 2,
                "dtype": "int",
                "is_symmetric": "True",
                "max": 0.1398998349905014,
                "min": -0.2797996699810028,
                "offset": -2,
                "scale": 0.1398998349905014
            },
            {
                "bitwidth": 2,
                "dtype": "int",
                "is_symmetric": "True",
                "max": 0.1286213994026184,
                "min": -0.2572427988052368,
                "offset": -2,
                "scale": 0.1286213994026184
            },
            {
                "bitwidth": 2,
                "dtype": "int",
                "is_symmetric": "True",
                "max": 0.11631318181753159,
                "min": -0.23262636363506317,
                "offset": -2,
                "scale": 0.11631318181753159
            },
            {
                "bitwidth": 2,
                "dtype": "int",
                "is_symmetric": "True",
                "max": 0.1671915054321289,
                "min": -0.3343830108642578,
                "offset": -2,
                "scale": 0.1671915054321289
            },
            {
                "bitwidth": 2,
                "dtype": "int",
                "is_symmetric": "True",
                "max": 0.12243092060089111,
                "min": -0.24486184120178223,
                "offset": -2,
                "scale": 0.12243092060089111
            },
            {
                "bitwidth": 2,
                "dtype": "int",
                "is_symmetric": "True",
                "max": 0.1355402171611786,
                "min": -0.2710804343223572,
                "offset": -2,
                "scale": 0.1355402171611786
            },
            {
                "bitwidth": 2,
                "dtype": "int",
                "is_symmetric": "True",
                "max": 0.17057469487190247,
                "min": -0.34114938974380493,
                "offset": -2,
                "scale": 0.17057469487190247
            },
            {
                "bitwidth": 2,
                "dtype": "int",
                "is_symmetric": "True",
                "max": 0.13893243670463562,
                "min": -0.27786487340927124,
                "offset": -2,
                "scale": 0.13893243670463562
            },
            {
                "bitwidth": 2,
                "dtype": "int",
                "is_symmetric": "True",
                "max": 0.1492573469877243,
                "min": -0.2985146939754486,
                "offset": -2,
                "scale": 0.1492573469877243
            },
            {
                "bitwidth": 2,
                "dtype": "int",
                "is_symmetric": "True",
                "max": 0.2113170027732849,
                "min": -0.4226340055465698,
                "offset": -2,
                "scale": 0.2113170027732849
            },
            {
                "bitwidth": 2,
                "dtype": "int",
                "is_symmetric": "True",
                "max": 0.12730121612548828,
                "min": -0.25460243225097656,
                "offset": -2,
                "scale": 0.12730121612548828
            },
            {
                "bitwidth": 2,
                "dtype": "int",
                "is_symmetric": "True",
                "max": 0.16649654507637024,
                "min": -0.3329930901527405,
                "offset": -2,
                "scale": 0.16649654507637024
            },
            {
                "bitwidth": 2,
                "dtype": "int",
                "is_symmetric": "True",
                "max": 0.14942096173763275,
                "min": -0.2988419234752655,
                "offset": -2,
                "scale": 0.14942096173763275
            },
            {
                "bitwidth": 2,
                "dtype": "int",
                "is_symmetric": "True",
                "max": 0.13010478019714355,
                "min": -0.2602095603942871,
                "offset": -2,
                "scale": 0.13010478019714355
            },
            {
                "bitwidth": 2,
                "dtype": "int",
                "is_symmetric": "True",
                "max": 0.12773393094539642,
                "min": -0.25546786189079285,
                "offset": -2,
                "scale": 0.12773393094539642
            },
            {
                "bitwidth": 2,
                "dtype": "int",
                "is_symmetric": "True",
                "max": 0.16142824292182922,
                "min": -0.32285648584365845,
                "offset": -2,
                "scale": 0.16142824292182922
            },
            {
                "bitwidth": 2,
                "dtype": "int",
                "is_symmetric": "True",
                "max": 0.1315562129020691,
                "min": -0.2631124258041382,
                "offset": -2,
                "scale": 0.1315562129020691
            },
            {
                "bitwidth": 2,
                "dtype": "int",
                "is_symmetric": "True",
                "max": 0.14789903163909912,
                "min": -0.29579806327819824,
                "offset": -2,
                "scale": 0.14789903163909912
            },
            {
                "bitwidth": 2,
                "dtype": "int",
                "is_symmetric": "True",
                "max": 0.21312347054481506,
                "min": -0.4262469410896301,
                "offset": -2,
                "scale": 0.21312347054481506
            },
            {
                "bitwidth": 2,
                "dtype": "int",
                "is_symmetric": "True",
                "max": 0.14180342853069305,
                "min": -0.2836068570613861,
                "offset": -2,
                "scale": 0.14180342853069305
            },
            {
                "bitwidth": 2,
                "dtype": "int",
                "is_symmetric": "True",
                "max": 0.12379389256238937,
                "min": -0.24758778512477875,
                "offset": -2,
                "scale": 0.12379389256238937
            },
            {
                "bitwidth": 2,
                "dtype": "int",
                "is_symmetric": "True",
                "max": 0.19551217555999756,
                "min": -0.3910243511199951,
                "offset": -2,
                "scale": 0.19551217555999756
            },
            {
                "bitwidth": 2,
                "dtype": "int",
                "is_symmetric": "True",
                "max": 0.12912026047706604,
                "min": -0.2582405209541321,
                "offset": -2,
                "scale": 0.12912026047706604
            },
            {
                "bitwidth": 2,
                "dtype": "int",
                "is_symmetric": "True",
                "max": 0.14526593685150146,
                "min": -0.29053187370300293,
                "offset": -2,
                "scale": 0.14526593685150146
            },
            {
                "bitwidth": 2,
                "dtype": "int",
                "is_symmetric": "True",
                "max": 0.1363104283809662,
                "min": -0.2726208567619324,
                "offset": -2,
                "scale": 0.1363104283809662
            },
            {
                "bitwidth": 2,
                "dtype": "int",
                "is_symmetric": "True",
                "max": 0.12457998842000961,
                "min": -0.24915997684001923,
                "offset": -2,
                "scale": 0.12457998842000961
            },
            {
                "bitwidth": 2,
                "dtype": "int",
                "is_symmetric": "True",
                "max": 0.21784961223602295,
                "min": -0.4356992244720459,
                "offset": -2,
                "scale": 0.21784961223602295
            },
            {
                "bitwidth": 2,
                "dtype": "int",
                "is_symmetric": "True",
                "max": 0.12440280616283417,
                "min": -0.24880561232566833,
                "offset": -2,
                "scale": 0.12440280616283417
            },
            {
                "bitwidth": 2,
                "dtype": "int",
                "is_symmetric": "True",
                "max": 0.12974868714809418,
                "min": -0.25949737429618835,
                "offset": -2,
                "scale": 0.12974868714809418
            },
            {
                "bitwidth": 2,
                "dtype": "int",
                "is_symmetric": "True",
                "max": 0.1389075219631195,
                "min": -0.277815043926239,
                "offset": -2,
                "scale": 0.1389075219631195
            },
            {
                "bitwidth": 2,
                "dtype": "int",
                "is_symmetric": "True",
                "max": 0.16561073064804077,
                "min": -0.33122146129608154,
                "offset": -2,
                "scale": 0.16561073064804077
            },
            {
                "bitwidth": 2,
                "dtype": "int",
                "is_symmetric": "True",
                "max": 0.1679423302412033,
                "min": -0.3358846604824066,
                "offset": -2,
                "scale": 0.1679423302412033
            },
            {
                "bitwidth": 2,
                "dtype": "int",
                "is_symmetric": "True",
                "max": 0.1522234082221985,
                "min": -0.304446816444397,
                "offset": -2,
                "scale": 0.1522234082221985
            },
            {
                "bitwidth": 2,
                "dtype": "int",
                "is_symmetric": "True",
                "max": 0.1366174817085266,
                "min": -0.2732349634170532,
                "offset": -2,
                "scale": 0.1366174817085266
            },
            {
                "bitwidth": 2,
                "dtype": "int",
                "is_symmetric": "True",
                "max": 0.20335134863853455,
                "min": -0.4067026972770691,
                "offset": -2,
                "scale": 0.20335134863853455
            },
            {
                "bitwidth": 2,
                "dtype": "int",
                "is_symmetric": "True",
                "max": 0.1867987960577011,
                "min": -0.3735975921154022,
                "offset": -2,
                "scale": 0.1867987960577011
            },
            {
                "bitwidth": 2,
                "dtype": "int",
                "is_symmetric": "True",
                "max": 0.166890949010849,
                "min": -0.333781898021698,
                "offset": -2,
                "scale": 0.166890949010849
            },
            {
                "bitwidth": 2,
                "dtype": "int",
                "is_symmetric": "True",
                "max": 0.2161913812160492,
                "min": -0.4323827624320984,
                "offset": -2,
                "scale": 0.2161913812160492
            },
            {
                "bitwidth": 2,
                "dtype": "int",
                "is_symmetric": "True",
                "max": 0.23583970963954926,
                "min": -0.4716794192790985,
                "offset": -2,
                "scale": 0.23583970963954926
            },
            {
                "bitwidth": 2,
                "dtype": "int",
                "is_symmetric": "True",
                "max": 0.2097412645816803,
                "min": -0.4194825291633606,
                "offset": -2,
                "scale": 0.2097412645816803
            },
            {
                "bitwidth": 2,
                "dtype": "int",
                "is_symmetric": "True",
                "max": 0.14349022507667542,
                "min": -0.28698045015335083,
                "offset": -2,
                "scale": 0.14349022507667542
            },
            {
                "bitwidth": 2,
                "dtype": "int",
                "is_symmetric": "True",
                "max": 0.142859548330307,
                "min": -0.285719096660614,
                "offset": -2,
                "scale": 0.142859548330307
            },
            {
                "bitwidth": 2,
                "dtype": "int",
                "is_symmetric": "True",
                "max": 0.17702779173851013,
                "min": -0.35405558347702026,
                "offset": -2,
                "scale": 0.17702779173851013
            },
            {
                "bitwidth": 2,
                "dtype": "int",
                "is_symmetric": "True",
                "max": 0.1941116750240326,
                "min": -0.3882233500480652,
                "offset": -2,
                "scale": 0.1941116750240326
            },
            {
                "bitwidth": 2,
                "dtype": "int",
                "is_symmetric": "True",
                "max": 0.13510744273662567,
                "min": -0.27021488547325134,
                "offset": -2,
                "scale": 0.13510744273662567
            },
            {
                "bitwidth": 2,
                "dtype": "int",
                "is_symmetric": "True",
                "max": 0.14653810858726501,
                "min": -0.29307621717453003,
                "offset": -2,
                "scale": 0.14653810858726501
            },
            {
                "bitwidth": 2,
                "dtype": "int",
                "is_symmetric": "True",
                "max": 0.2197531759738922,
                "min": -0.4395063519477844,
                "offset": -2,
                "scale": 0.2197531759738922
            },
            {
                "bitwidth": 2,
                "dtype": "int",
                "is_symmetric": "True",
                "max": 0.13485239446163177,
                "min": -0.26970478892326355,
                "offset": -2,
                "scale": 0.13485239446163177
            },
            {
                "bitwidth": 2,
                "dtype": "int",
                "is_symmetric": "True",
                "max": 0.1412421464920044,
                "min": -0.2824842929840088,
                "offset": -2,
                "scale": 0.1412421464920044
            },
            {
                "bitwidth": 2,
                "dtype": "int",
                "is_symmetric": "True",
                "max": 0.14709316194057465,
                "min": -0.2941863238811493,
                "offset": -2,
                "scale": 0.14709316194057465
            },
            {
                "bitwidth": 2,
                "dtype": "int",
                "is_symmetric": "True",
                "max": 0.13585959374904633,
                "min": -0.27171918749809265,
                "offset": -2,
                "scale": 0.13585959374904633
            },
            {
                "bitwidth": 2,
                "dtype": "int",
                "is_symmetric": "True",
                "max": 0.14882969856262207,
                "min": -0.29765939712524414,
                "offset": -2,
                "scale": 0.14882969856262207
            },
            {
                "bitwidth": 2,
                "dtype": "int",
                "is_symmetric": "True",
                "max": 0.1306077241897583,
                "min": -0.2612154483795166,
                "offset": -2,
                "scale": 0.1306077241897583
            },
            {
                "bitwidth": 2,
                "dtype": "int",
                "is_symmetric": "True",
                "max": 0.21975985169410706,
                "min": -0.4395197033882141,
                "offset": -2,
                "scale": 0.21975985169410706
            },
            {
                "bitwidth": 2,
                "dtype": "int",
                "is_symmetric": "True",
                "max": 0.1765948385000229,
                "min": -0.3531896770000458,
                "offset": -2,
                "scale": 0.1765948385000229
            },
            {
                "bitwidth": 2,
                "dtype": "int",
                "is_symmetric": "True",
                "max": 0.16369977593421936,
                "min": -0.3273995518684387,
                "offset": -2,
                "scale": 0.16369977593421936
            },
            {
                "bitwidth": 2,
                "dtype": "int",
                "is_symmetric": "True",
                "max": 0.18301503360271454,
                "min": -0.3660300672054291,
                "offset": -2,
                "scale": 0.18301503360271454
            },
            {
                "bitwidth": 2,
                "dtype": "int",
                "is_symmetric": "True",
                "max": 0.21540364623069763,
                "min": -0.43080729246139526,
                "offset": -2,
                "scale": 0.21540364623069763
            },
            {
                "bitwidth": 2,
                "dtype": "int",
                "is_symmetric": "True",
                "max": 0.1352228820323944,
                "min": -0.2704457640647888,
                "offset": -2,
                "scale": 0.1352228820323944
            },
            {
                "bitwidth": 2,
                "dtype": "int",
                "is_symmetric": "True",
                "max": 0.1376037299633026,
                "min": -0.2752074599266052,
                "offset": -2,
                "scale": 0.1376037299633026
            },
            {
                "bitwidth": 2,
                "dtype": "int",
                "is_symmetric": "True",
                "max": 0.13791172206401825,
                "min": -0.2758234441280365,
                "offset": -2,
                "scale": 0.13791172206401825
            },
            {
                "bitwidth": 2,
                "dtype": "int",
                "is_symmetric": "True",
                "max": 0.1414681375026703,
                "min": -0.2829362750053406,
                "offset": -2,
                "scale": 0.1414681375026703
            },
            {
                "bitwidth": 2,
                "dtype": "int",
                "is_symmetric": "True",
                "max": 0.15162482857704163,
                "min": -0.30324965715408325,
                "offset": -2,
                "scale": 0.15162482857704163
            },
            {
                "bitwidth": 2,
                "dtype": "int",
                "is_symmetric": "True",
                "max": 0.12248657643795013,
                "min": -0.24497315287590027,
                "offset": -2,
                "scale": 0.12248657643795013
            },
            {
                "bitwidth": 2,
                "dtype": "int",
                "is_symmetric": "True",
                "max": 0.17528419196605682,
                "min": -0.35056838393211365,
                "offset": -2,
                "scale": 0.17528419196605682
            },
            {
                "bitwidth": 2,
                "dtype": "int",
                "is_symmetric": "True",
                "max": 0.15105822682380676,
                "min": -0.3021164536476135,
                "offset": -2,
                "scale": 0.15105822682380676
            },
            {
                "bitwidth": 2,
                "dtype": "int",
                "is_symmetric": "True",
                "max": 0.13864031434059143,
                "min": -0.27728062868118286,
                "offset": -2,
                "scale": 0.13864031434059143
            },
            {
                "bitwidth": 2,
                "dtype": "int",
                "is_symmetric": "True",
                "max": 0.11952441185712814,
                "min": -0.2390488237142563,
                "offset": -2,
                "scale": 0.11952441185712814
            },
            {
                "bitwidth": 2,
                "dtype": "int",
                "is_symmetric": "True",
                "max": 0.18005630373954773,
                "min": -0.36011260747909546,
                "offset": -2,
                "scale": 0.18005630373954773
            },
            {
                "bitwidth": 2,
                "dtype": "int",
                "is_symmetric": "True",
                "max": 0.1313859075307846,
                "min": -0.2627718150615692,
                "offset": -2,
                "scale": 0.1313859075307846
            },
            {
                "bitwidth": 2,
                "dtype": "int",
                "is_symmetric": "True",
                "max": 0.15530917048454285,
                "min": -0.3106183409690857,
                "offset": -2,
                "scale": 0.15530917048454285
            },
            {
                "bitwidth": 2,
                "dtype": "int",
                "is_symmetric": "True",
                "max": 0.12250535190105438,
                "min": -0.24501070380210876,
                "offset": -2,
                "scale": 0.12250535190105438
            },
            {
                "bitwidth": 2,
                "dtype": "int",
                "is_symmetric": "True",
                "max": 0.11311028897762299,
                "min": -0.22622057795524597,
                "offset": -2,
                "scale": 0.11311028897762299
            },
            {
                "bitwidth": 2,
                "dtype": "int",
                "is_symmetric": "True",
                "max": 0.13682250678539276,
                "min": -0.2736450135707855,
                "offset": -2,
                "scale": 0.13682250678539276
            },
            {
                "bitwidth": 2,
                "dtype": "int",
                "is_symmetric": "True",
                "max": 0.1311628669500351,
                "min": -0.2623257339000702,
                "offset": -2,
                "scale": 0.1311628669500351
            },
            {
                "bitwidth": 2,
                "dtype": "int",
                "is_symmetric": "True",
                "max": 0.14801833033561707,
                "min": -0.29603666067123413,
                "offset": -2,
                "scale": 0.14801833033561707
            },
            {
                "bitwidth": 2,
                "dtype": "int",
                "is_symmetric": "True",
                "max": 0.13643406331539154,
                "min": -0.2728681266307831,
                "offset": -2,
                "scale": 0.13643406331539154
            },
            {
                "bitwidth": 2,
                "dtype": "int",
                "is_symmetric": "True",
                "max": 0.14189371466636658,
                "min": -0.28378742933273315,
                "offset": -2,
                "scale": 0.14189371466636658
            },
            {
                "bitwidth": 2,
                "dtype": "int",
                "is_symmetric": "True",
                "max": 0.1319858729839325,
                "min": -0.263971745967865,
                "offset": -2,
                "scale": 0.1319858729839325
            },
            {
                "bitwidth": 2,
                "dtype": "int",
                "is_symmetric": "True",
                "max": 0.13675671815872192,
                "min": -0.27351343631744385,
                "offset": -2,
                "scale": 0.13675671815872192
            },
            {
                "bitwidth": 2,
                "dtype": "int",
                "is_symmetric": "True",
                "max": 0.12703830003738403,
                "min": -0.25407660007476807,
                "offset": -2,
                "scale": 0.12703830003738403
            },
            {
                "bitwidth": 2,
                "dtype": "int",
                "is_symmetric": "True",
                "max": 0.16414615511894226,
                "min": -0.3282923102378845,
                "offset": -2,
                "scale": 0.16414615511894226
            },
            {
                "bitwidth": 2,
                "dtype": "int",
                "is_symmetric": "True",
                "max": 0.17668071389198303,
                "min": -0.35336142778396606,
                "offset": -2,
                "scale": 0.17668071389198303
            },
            {
                "bitwidth": 2,
                "dtype": "int",
                "is_symmetric": "True",
                "max": 0.17284449934959412,
                "min": -0.34568899869918823,
                "offset": -2,
                "scale": 0.17284449934959412
            },
            {
                "bitwidth": 2,
                "dtype": "int",
                "is_symmetric": "True",
                "max": 0.16592328250408173,
                "min": -0.33184656500816345,
                "offset": -2,
                "scale": 0.16592328250408173
            },
            {
                "bitwidth": 2,
                "dtype": "int",
                "is_symmetric": "True",
                "max": 0.13421426713466644,
                "min": -0.2684285342693329,
                "offset": -2,
                "scale": 0.13421426713466644
            },
            {
                "bitwidth": 2,
                "dtype": "int",
                "is_symmetric": "True",
                "max": 0.12650302052497864,
                "min": -0.2530060410499573,
                "offset": -2,
                "scale": 0.12650302052497864
            },
            {
                "bitwidth": 2,
                "dtype": "int",
                "is_symmetric": "True",
                "max": 0.13031302392482758,
                "min": -0.26062604784965515,
                "offset": -2,
                "scale": 0.13031302392482758
            },
            {
                "bitwidth": 2,
                "dtype": "int",
                "is_symmetric": "True",
                "max": 0.13627175986766815,
                "min": -0.2725435197353363,
                "offset": -2,
                "scale": 0.13627175986766815
            },
            {
                "bitwidth": 2,
                "dtype": "int",
                "is_symmetric": "True",
                "max": 0.15246717631816864,
                "min": -0.3049343526363373,
                "offset": -2,
                "scale": 0.15246717631816864
            },
            {
                "bitwidth": 2,
                "dtype": "int",
                "is_symmetric": "True",
                "max": 0.16648322343826294,
                "min": -0.3329664468765259,
                "offset": -2,
                "scale": 0.16648322343826294
            },
            {
                "bitwidth": 2,
                "dtype": "int",
                "is_symmetric": "True",
                "max": 0.14297577738761902,
                "min": -0.28595155477523804,
                "offset": -2,
                "scale": 0.14297577738761902
            },
            {
                "bitwidth": 2,
                "dtype": "int",
                "is_symmetric": "True",
                "max": 0.18455800414085388,
                "min": -0.36911600828170776,
                "offset": -2,
                "scale": 0.18455800414085388
            },
            {
                "bitwidth": 2,
                "dtype": "int",
                "is_symmetric": "True",
                "max": 0.1149134486913681,
                "min": -0.2298268973827362,
                "offset": -2,
                "scale": 0.1149134486913681
            },
            {
                "bitwidth": 2,
                "dtype": "int",
                "is_symmetric": "True",
                "max": 0.11954744160175323,
                "min": -0.23909488320350647,
                "offset": -2,
                "scale": 0.11954744160175323
            },
            {
                "bitwidth": 2,
                "dtype": "int",
                "is_symmetric": "True",
                "max": 0.13267865777015686,
                "min": -0.2653573155403137,
                "offset": -2,
                "scale": 0.13267865777015686
            },
            {
                "bitwidth": 2,
                "dtype": "int",
                "is_symmetric": "True",
                "max": 0.13581165671348572,
                "min": -0.27162331342697144,
                "offset": -2,
                "scale": 0.13581165671348572
            },
            {
                "bitwidth": 2,
                "dtype": "int",
                "is_symmetric": "True",
                "max": 0.14944502711296082,
                "min": -0.29889005422592163,
                "offset": -2,
                "scale": 0.14944502711296082
            },
            {
                "bitwidth": 2,
                "dtype": "int",
                "is_symmetric": "True",
                "max": 0.13425076007843018,
                "min": -0.26850152015686035,
                "offset": -2,
                "scale": 0.13425076007843018
            },
            {
                "bitwidth": 2,
                "dtype": "int",
                "is_symmetric": "True",
                "max": 0.15677884221076965,
                "min": -0.3135576844215393,
                "offset": -2,
                "scale": 0.15677884221076965
            },
            {
                "bitwidth": 2,
                "dtype": "int",
                "is_symmetric": "True",
                "max": 0.11976545304059982,
                "min": -0.23953090608119965,
                "offset": -2,
                "scale": 0.11976545304059982
            },
            {
                "bitwidth": 2,
                "dtype": "int",
                "is_symmetric": "True",
                "max": 0.1456967294216156,
                "min": -0.2913934588432312,
                "offset": -2,
                "scale": 0.1456967294216156
            },
            {
                "bitwidth": 2,
                "dtype": "int",
                "is_symmetric": "True",
                "max": 0.23281481862068176,
                "min": -0.4656296372413635,
                "offset": -2,
                "scale": 0.23281481862068176
            },
            {
                "bitwidth": 2,
                "dtype": "int",
                "is_symmetric": "True",
                "max": 0.1588786542415619,
                "min": -0.3177573084831238,
                "offset": -2,
                "scale": 0.1588786542415619
            },
            {
                "bitwidth": 2,
                "dtype": "int",
                "is_symmetric": "True",
                "max": 0.17733094096183777,
                "min": -0.35466188192367554,
                "offset": -2,
                "scale": 0.17733094096183777
            },
            {
                "bitwidth": 2,
                "dtype": "int",
                "is_symmetric": "True",
                "max": 0.13831815123558044,
                "min": -0.2766363024711609,
                "offset": -2,
                "scale": 0.13831815123558044
            },
            {
                "bitwidth": 2,
                "dtype": "int",
                "is_symmetric": "True",
                "max": 0.1782362461090088,
                "min": -0.3564724922180176,
                "offset": -2,
                "scale": 0.1782362461090088
            },
            {
                "bitwidth": 2,
                "dtype": "int",
                "is_symmetric": "True",
                "max": 0.13025127351284027,
                "min": -0.26050254702568054,
                "offset": -2,
                "scale": 0.13025127351284027
            },
            {
                "bitwidth": 2,
                "dtype": "int",
                "is_symmetric": "True",
                "max": 0.17036376893520355,
                "min": -0.3407275378704071,
                "offset": -2,
                "scale": 0.17036376893520355
            },
            {
                "bitwidth": 2,
                "dtype": "int",
                "is_symmetric": "True",
                "max": 0.14188018441200256,
                "min": -0.2837603688240051,
                "offset": -2,
                "scale": 0.14188018441200256
            },
            {
                "bitwidth": 2,
                "dtype": "int",
                "is_symmetric": "True",
                "max": 0.1431654542684555,
                "min": -0.286330908536911,
                "offset": -2,
                "scale": 0.1431654542684555
            },
            {
                "bitwidth": 2,
                "dtype": "int",
                "is_symmetric": "True",
                "max": 0.15449920296669006,
                "min": -0.3089984059333801,
                "offset": -2,
                "scale": 0.15449920296669006
            },
            {
                "bitwidth": 2,
                "dtype": "int",
                "is_symmetric": "True",
                "max": 0.13407926261425018,
                "min": -0.26815852522850037,
                "offset": -2,
                "scale": 0.13407926261425018
            },
            {
                "bitwidth": 2,
                "dtype": "int",
                "is_symmetric": "True",
                "max": 0.12851592898368835,
                "min": -0.2570318579673767,
                "offset": -2,
                "scale": 0.12851592898368835
            },
            {
                "bitwidth": 2,
                "dtype": "int",
                "is_symmetric": "True",
                "max": 0.12803760170936584,
                "min": -0.2560752034187317,
                "offset": -2,
                "scale": 0.12803760170936584
            },
            {
                "bitwidth": 2,
                "dtype": "int",
                "is_symmetric": "True",
                "max": 0.13281497359275818,
                "min": -0.26562994718551636,
                "offset": -2,
                "scale": 0.13281497359275818
            },
            {
                "bitwidth": 2,
                "dtype": "int",
                "is_symmetric": "True",
                "max": 0.13932356238365173,
                "min": -0.27864712476730347,
                "offset": -2,
                "scale": 0.13932356238365173
            },
            {
                "bitwidth": 2,
                "dtype": "int",
                "is_symmetric": "True",
                "max": 0.14610730111598969,
                "min": -0.29221460223197937,
                "offset": -2,
                "scale": 0.14610730111598969
            },
            {
                "bitwidth": 2,
                "dtype": "int",
                "is_symmetric": "True",
                "max": 0.14836916327476501,
                "min": -0.29673832654953003,
                "offset": -2,
                "scale": 0.14836916327476501
            },
            {
                "bitwidth": 2,
                "dtype": "int",
                "is_symmetric": "True",
                "max": 0.14222702383995056,
                "min": -0.2844540476799011,
                "offset": -2,
                "scale": 0.14222702383995056
            },
            {
                "bitwidth": 2,
                "dtype": "int",
                "is_symmetric": "True",
                "max": 0.1344689428806305,
                "min": -0.268937885761261,
                "offset": -2,
                "scale": 0.1344689428806305
            },
            {
                "bitwidth": 2,
                "dtype": "int",
                "is_symmetric": "True",
                "max": 0.1344311535358429,
                "min": -0.2688623070716858,
                "offset": -2,
                "scale": 0.1344311535358429
            },
            {
                "bitwidth": 2,
                "dtype": "int",
                "is_symmetric": "True",
                "max": 0.1496494710445404,
                "min": -0.2992989420890808,
                "offset": -2,
                "scale": 0.1496494710445404
            },
            {
                "bitwidth": 2,
                "dtype": "int",
                "is_symmetric": "True",
                "max": 0.1406148374080658,
                "min": -0.2812296748161316,
                "offset": -2,
                "scale": 0.1406148374080658
            },
            {
                "bitwidth": 2,
                "dtype": "int",
                "is_symmetric": "True",
                "max": 0.15107940137386322,
                "min": -0.30215880274772644,
                "offset": -2,
                "scale": 0.15107940137386322
            },
            {
                "bitwidth": 2,
                "dtype": "int",
                "is_symmetric": "True",
                "max": 0.148949533700943,
                "min": -0.297899067401886,
                "offset": -2,
                "scale": 0.148949533700943
            },
            {
                "bitwidth": 2,
                "dtype": "int",
                "is_symmetric": "True",
                "max": 0.14424434304237366,
                "min": -0.2884886860847473,
                "offset": -2,
                "scale": 0.14424434304237366
            },
            {
                "bitwidth": 2,
                "dtype": "int",
                "is_symmetric": "True",
                "max": 0.13253264129161835,
                "min": -0.2650652825832367,
                "offset": -2,
                "scale": 0.13253264129161835
            },
            {
                "bitwidth": 2,
                "dtype": "int",
                "is_symmetric": "True",
                "max": 0.12085213512182236,
                "min": -0.24170427024364471,
                "offset": -2,
                "scale": 0.12085213512182236
            },
            {
                "bitwidth": 2,
                "dtype": "int",
                "is_symmetric": "True",
                "max": 0.17808881402015686,
                "min": -0.3561776280403137,
                "offset": -2,
                "scale": 0.17808881402015686
            },
            {
                "bitwidth": 2,
                "dtype": "int",
                "is_symmetric": "True",
                "max": 0.13043031096458435,
                "min": -0.2608606219291687,
                "offset": -2,
                "scale": 0.13043031096458435
            },
            {
                "bitwidth": 2,
                "dtype": "int",
                "is_symmetric": "True",
                "max": 0.12747371196746826,
                "min": -0.2549474239349365,
                "offset": -2,
                "scale": 0.12747371196746826
            },
            {
                "bitwidth": 2,
                "dtype": "int",
                "is_symmetric": "True",
                "max": 0.11782225966453552,
                "min": -0.23564451932907104,
                "offset": -2,
                "scale": 0.11782225966453552
            },
            {
                "bitwidth": 2,
                "dtype": "int",
                "is_symmetric": "True",
                "max": 0.12530788779258728,
                "min": -0.25061577558517456,
                "offset": -2,
                "scale": 0.12530788779258728
            },
            {
                "bitwidth": 2,
                "dtype": "int",
                "is_symmetric": "True",
                "max": 0.14741061627864838,
                "min": -0.29482123255729675,
                "offset": -2,
                "scale": 0.14741061627864838
            },
            {
                "bitwidth": 2,
                "dtype": "int",
                "is_symmetric": "True",
                "max": 0.12709632515907288,
                "min": -0.25419265031814575,
                "offset": -2,
                "scale": 0.12709632515907288
            },
            {
                "bitwidth": 2,
                "dtype": "int",
                "is_symmetric": "True",
                "max": 0.1263626217842102,
                "min": -0.2527252435684204,
                "offset": -2,
                "scale": 0.1263626217842102
            },
            {
                "bitwidth": 2,
                "dtype": "int",
                "is_symmetric": "True",
                "max": 0.19735990464687347,
                "min": -0.39471980929374695,
                "offset": -2,
                "scale": 0.19735990464687347
            },
            {
                "bitwidth": 2,
                "dtype": "int",
                "is_symmetric": "True",
                "max": 0.16384747624397278,
                "min": -0.32769495248794556,
                "offset": -2,
                "scale": 0.16384747624397278
            },
            {
                "bitwidth": 2,
                "dtype": "int",
                "is_symmetric": "True",
                "max": 0.12428641319274902,
                "min": -0.24857282638549805,
                "offset": -2,
                "scale": 0.12428641319274902
            },
            {
                "bitwidth": 2,
                "dtype": "int",
                "is_symmetric": "True",
                "max": 0.11259856075048447,
                "min": -0.22519712150096893,
                "offset": -2,
                "scale": 0.11259856075048447
            },
            {
                "bitwidth": 2,
                "dtype": "int",
                "is_symmetric": "True",
                "max": 0.14481805264949799,
                "min": -0.28963610529899597,
                "offset": -2,
                "scale": 0.14481805264949799
            },
            {
                "bitwidth": 2,
                "dtype": "int",
                "is_symmetric": "True",
                "max": 0.1757783591747284,
                "min": -0.3515567183494568,
                "offset": -2,
                "scale": 0.1757783591747284
            },
            {
                "bitwidth": 2,
                "dtype": "int",
                "is_symmetric": "True",
                "max": 0.1590254306793213,
                "min": -0.3180508613586426,
                "offset": -2,
                "scale": 0.1590254306793213
            },
            {
                "bitwidth": 2,
                "dtype": "int",
                "is_symmetric": "True",
                "max": 0.13606104254722595,
                "min": -0.2721220850944519,
                "offset": -2,
                "scale": 0.13606104254722595
            },
            {
                "bitwidth": 2,
                "dtype": "int",
                "is_symmetric": "True",
                "max": 0.17482301592826843,
                "min": -0.34964603185653687,
                "offset": -2,
                "scale": 0.17482301592826843
            },
            {
                "bitwidth": 2,
                "dtype": "int",
                "is_symmetric": "True",
                "max": 0.1525801718235016,
                "min": -0.3051603436470032,
                "offset": -2,
                "scale": 0.1525801718235016
            },
            {
                "bitwidth": 2,
                "dtype": "int",
                "is_symmetric": "True",
                "max": 0.1923883557319641,
                "min": -0.3847767114639282,
                "offset": -2,
                "scale": 0.1923883557319641
            },
            {
                "bitwidth": 2,
                "dtype": "int",
                "is_symmetric": "True",
                "max": 0.16840264201164246,
                "min": -0.3368052840232849,
                "offset": -2,
                "scale": 0.16840264201164246
            },
            {
                "bitwidth": 2,
                "dtype": "int",
                "is_symmetric": "True",
                "max": 0.11773663014173508,
                "min": -0.23547326028347015,
                "offset": -2,
                "scale": 0.11773663014173508
            },
            {
                "bitwidth": 2,
                "dtype": "int",
                "is_symmetric": "True",
                "max": 0.15190473198890686,
                "min": -0.3038094639778137,
                "offset": -2,
                "scale": 0.15190473198890686
            },
            {
                "bitwidth": 2,
                "dtype": "int",
                "is_symmetric": "True",
                "max": 0.12434770166873932,
                "min": -0.24869540333747864,
                "offset": -2,
                "scale": 0.12434770166873932
            },
            {
                "bitwidth": 2,
                "dtype": "int",
                "is_symmetric": "True",
                "max": 0.1493537724018097,
                "min": -0.2987075448036194,
                "offset": -2,
                "scale": 0.1493537724018097
            },
            {
                "bitwidth": 2,
                "dtype": "int",
                "is_symmetric": "True",
                "max": 0.12595385313034058,
                "min": -0.25190770626068115,
                "offset": -2,
                "scale": 0.12595385313034058
            },
            {
                "bitwidth": 2,
                "dtype": "int",
                "is_symmetric": "True",
                "max": 0.10391607135534286,
                "min": -0.20783214271068573,
                "offset": -2,
                "scale": 0.10391607135534286
            },
            {
                "bitwidth": 2,
                "dtype": "int",
                "is_symmetric": "True",
                "max": 0.15030185878276825,
                "min": -0.3006037175655365,
                "offset": -2,
                "scale": 0.15030185878276825
            },
            {
                "bitwidth": 2,
                "dtype": "int",
                "is_symmetric": "True",
                "max": 0.1450549215078354,
                "min": -0.2901098430156708,
                "offset": -2,
                "scale": 0.1450549215078354
            },
            {
                "bitwidth": 2,
                "dtype": "int",
                "is_symmetric": "True",
                "max": 0.12971793115139008,
                "min": -0.25943586230278015,
                "offset": -2,
                "scale": 0.12971793115139008
            },
            {
                "bitwidth": 2,
                "dtype": "int",
                "is_symmetric": "True",
                "max": 0.16500136256217957,
                "min": -0.33000272512435913,
                "offset": -2,
                "scale": 0.16500136256217957
            },
            {
                "bitwidth": 2,
                "dtype": "int",
                "is_symmetric": "True",
                "max": 0.12611399590969086,
                "min": -0.2522279918193817,
                "offset": -2,
                "scale": 0.12611399590969086
            },
            {
                "bitwidth": 2,
                "dtype": "int",
                "is_symmetric": "True",
                "max": 0.14882206916809082,
                "min": -0.29764413833618164,
                "offset": -2,
                "scale": 0.14882206916809082
            },
            {
                "bitwidth": 2,
                "dtype": "int",
                "is_symmetric": "True",
                "max": 0.12607696652412415,
                "min": -0.2521539330482483,
                "offset": -2,
                "scale": 0.12607696652412415
            },
            {
                "bitwidth": 2,
                "dtype": "int",
                "is_symmetric": "True",
                "max": 0.15252259373664856,
                "min": -0.3050451874732971,
                "offset": -2,
                "scale": 0.15252259373664856
            },
            {
                "bitwidth": 2,
                "dtype": "int",
                "is_symmetric": "True",
                "max": 0.15014348924160004,
                "min": -0.3002869784832001,
                "offset": -2,
                "scale": 0.15014348924160004
            },
            {
                "bitwidth": 2,
                "dtype": "int",
                "is_symmetric": "True",
                "max": 0.16098999977111816,
                "min": -0.32197999954223633,
                "offset": -2,
                "scale": 0.16098999977111816
            },
            {
                "bitwidth": 2,
                "dtype": "int",
                "is_symmetric": "True",
                "max": 0.12058671563863754,
                "min": -0.24117343127727509,
                "offset": -2,
                "scale": 0.12058671563863754
            },
            {
                "bitwidth": 2,
                "dtype": "int",
                "is_symmetric": "True",
                "max": 0.12452515959739685,
                "min": -0.2490503191947937,
                "offset": -2,
                "scale": 0.12452515959739685
            },
            {
                "bitwidth": 2,
                "dtype": "int",
                "is_symmetric": "True",
                "max": 0.12638616561889648,
                "min": -0.25277233123779297,
                "offset": -2,
                "scale": 0.12638616561889648
            },
            {
                "bitwidth": 2,
                "dtype": "int",
                "is_symmetric": "True",
                "max": 0.17578604817390442,
                "min": -0.35157209634780884,
                "offset": -2,
                "scale": 0.17578604817390442
            },
            {
                "bitwidth": 2,
                "dtype": "int",
                "is_symmetric": "True",
                "max": 0.1600055992603302,
                "min": -0.3200111985206604,
                "offset": -2,
                "scale": 0.1600055992603302
            },
            {
                "bitwidth": 2,
                "dtype": "int",
                "is_symmetric": "True",
                "max": 0.12436269223690033,
                "min": -0.24872538447380066,
                "offset": -2,
                "scale": 0.12436269223690033
            },
            {
                "bitwidth": 2,
                "dtype": "int",
                "is_symmetric": "True",
                "max": 0.14344733953475952,
                "min": -0.28689467906951904,
                "offset": -2,
                "scale": 0.14344733953475952
            },
            {
                "bitwidth": 2,
                "dtype": "int",
                "is_symmetric": "True",
                "max": 0.18967291712760925,
                "min": -0.3793458342552185,
                "offset": -2,
                "scale": 0.18967291712760925
            },
            {
                "bitwidth": 2,
                "dtype": "int",
                "is_symmetric": "True",
                "max": 0.13017061352729797,
                "min": -0.26034122705459595,
                "offset": -2,
                "scale": 0.13017061352729797
            },
            {
                "bitwidth": 2,
                "dtype": "int",
                "is_symmetric": "True",
                "max": 0.11105024069547653,
                "min": -0.22210048139095306,
                "offset": -2,
                "scale": 0.11105024069547653
            },
            {
                "bitwidth": 2,
                "dtype": "int",
                "is_symmetric": "True",
                "max": 0.13185980916023254,
                "min": -0.2637196183204651,
                "offset": -2,
                "scale": 0.13185980916023254
            },
            {
                "bitwidth": 2,
                "dtype": "int",
                "is_symmetric": "True",
                "max": 0.11478333920240402,
                "min": -0.22956667840480804,
                "offset": -2,
                "scale": 0.11478333920240402
            },
            {
                "bitwidth": 2,
                "dtype": "int",
                "is_symmetric": "True",
                "max": 0.14040981233119965,
                "min": -0.2808196246623993,
                "offset": -2,
                "scale": 0.14040981233119965
            },
            {
                "bitwidth": 2,
                "dtype": "int",
                "is_symmetric": "True",
                "max": 0.12856754660606384,
                "min": -0.2571350932121277,
                "offset": -2,
                "scale": 0.12856754660606384
            },
            {
                "bitwidth": 2,
                "dtype": "int",
                "is_symmetric": "True",
                "max": 0.1995144784450531,
                "min": -0.3990289568901062,
                "offset": -2,
                "scale": 0.1995144784450531
            },
            {
                "bitwidth": 2,
                "dtype": "int",
                "is_symmetric": "True",
                "max": 0.14105412364006042,
                "min": -0.28210824728012085,
                "offset": -2,
                "scale": 0.14105412364006042
            },
            {
                "bitwidth": 2,
                "dtype": "int",
                "is_symmetric": "True",
                "max": 0.11429669708013535,
                "min": -0.2285933941602707,
                "offset": -2,
                "scale": 0.11429669708013535
            },
            {
                "bitwidth": 2,
                "dtype": "int",
                "is_symmetric": "True",
                "max": 0.14547261595726013,
                "min": -0.29094523191452026,
                "offset": -2,
                "scale": 0.14547261595726013
            },
            {
                "bitwidth": 2,
                "dtype": "int",
                "is_symmetric": "True",
                "max": 0.12666258215904236,
                "min": -0.2533251643180847,
                "offset": -2,
                "scale": 0.12666258215904236
            },
            {
                "bitwidth": 2,
                "dtype": "int",
                "is_symmetric": "True",
                "max": 0.15011762082576752,
                "min": -0.30023524165153503,
                "offset": -2,
                "scale": 0.15011762082576752
            },
            {
                "bitwidth": 2,
                "dtype": "int",
                "is_symmetric": "True",
                "max": 0.11091431230306625,
                "min": -0.2218286246061325,
                "offset": -2,
                "scale": 0.11091431230306625
            },
            {
                "bitwidth": 2,
                "dtype": "int",
                "is_symmetric": "True",
                "max": 0.16082730889320374,
                "min": -0.32165461778640747,
                "offset": -2,
                "scale": 0.16082730889320374
            },
            {
                "bitwidth": 2,
                "dtype": "int",
                "is_symmetric": "True",
                "max": 0.13856081664562225,
                "min": -0.2771216332912445,
                "offset": -2,
                "scale": 0.13856081664562225
            },
            {
                "bitwidth": 2,
                "dtype": "int",
                "is_symmetric": "True",
                "max": 0.14057999849319458,
                "min": -0.28115999698638916,
                "offset": -2,
                "scale": 0.14057999849319458
            },
            {
                "bitwidth": 2,
                "dtype": "int",
                "is_symmetric": "True",
                "max": 0.15027658641338348,
                "min": -0.30055317282676697,
                "offset": -2,
                "scale": 0.15027658641338348
            },
            {
                "bitwidth": 2,
                "dtype": "int",
                "is_symmetric": "True",
                "max": 0.13870476186275482,
                "min": -0.27740952372550964,
                "offset": -2,
                "scale": 0.13870476186275482
            },
            {
                "bitwidth": 2,
                "dtype": "int",
                "is_symmetric": "True",
                "max": 0.20113693177700043,
                "min": -0.40227386355400085,
                "offset": -2,
                "scale": 0.20113693177700043
            },
            {
                "bitwidth": 2,
                "dtype": "int",
                "is_symmetric": "True",
                "max": 0.11700934171676636,
                "min": -0.23401868343353271,
                "offset": -2,
                "scale": 0.11700934171676636
            },
            {
                "bitwidth": 2,
                "dtype": "int",
                "is_symmetric": "True",
                "max": 0.11746904253959656,
                "min": -0.23493808507919312,
                "offset": -2,
                "scale": 0.11746904253959656
            },
            {
                "bitwidth": 2,
                "dtype": "int",
                "is_symmetric": "True",
                "max": 0.15029965341091156,
                "min": -0.3005993068218231,
                "offset": -2,
                "scale": 0.15029965341091156
            },
            {
                "bitwidth": 2,
                "dtype": "int",
                "is_symmetric": "True",
                "max": 0.17560634016990662,
                "min": -0.35121268033981323,
                "offset": -2,
                "scale": 0.17560634016990662
            },
            {
                "bitwidth": 2,
                "dtype": "int",
                "is_symmetric": "True",
                "max": 0.12980052828788757,
                "min": -0.25960105657577515,
                "offset": -2,
                "scale": 0.12980052828788757
            },
            {
                "bitwidth": 2,
                "dtype": "int",
                "is_symmetric": "True",
                "max": 0.1429581344127655,
                "min": -0.285916268825531,
                "offset": -2,
                "scale": 0.1429581344127655
            },
            {
                "bitwidth": 2,
                "dtype": "int",
                "is_symmetric": "True",
                "max": 0.14961549639701843,
                "min": -0.29923099279403687,
                "offset": -2,
                "scale": 0.14961549639701843
            },
            {
                "bitwidth": 2,
                "dtype": "int",
                "is_symmetric": "True",
                "max": 0.1329265683889389,
                "min": -0.2658531367778778,
                "offset": -2,
                "scale": 0.1329265683889389
            },
            {
                "bitwidth": 2,
                "dtype": "int",
                "is_symmetric": "True",
                "max": 0.16777291893959045,
                "min": -0.3355458378791809,
                "offset": -2,
                "scale": 0.16777291893959045
            },
            {
                "bitwidth": 2,
                "dtype": "int",
                "is_symmetric": "True",
                "max": 0.18409395217895508,
                "min": -0.36818790435791016,
                "offset": -2,
                "scale": 0.18409395217895508
            },
            {
                "bitwidth": 2,
                "dtype": "int",
                "is_symmetric": "True",
                "max": 0.1831400841474533,
                "min": -0.3662801682949066,
                "offset": -2,
                "scale": 0.1831400841474533
            },
            {
                "bitwidth": 2,
                "dtype": "int",
                "is_symmetric": "True",
                "max": 0.12968668341636658,
                "min": -0.25937336683273315,
                "offset": -2,
                "scale": 0.12968668341636658
            },
            {
                "bitwidth": 2,
                "dtype": "int",
                "is_symmetric": "True",
                "max": 0.13662086427211761,
                "min": -0.27324172854423523,
                "offset": -2,
                "scale": 0.13662086427211761
            },
            {
                "bitwidth": 2,
                "dtype": "int",
                "is_symmetric": "True",
                "max": 0.11402641236782074,
                "min": -0.22805282473564148,
                "offset": -2,
                "scale": 0.11402641236782074
            },
            {
                "bitwidth": 2,
                "dtype": "int",
                "is_symmetric": "True",
                "max": 0.14062850177288055,
                "min": -0.2812570035457611,
                "offset": -2,
                "scale": 0.14062850177288055
            },
            {
                "bitwidth": 2,
                "dtype": "int",
                "is_symmetric": "True",
                "max": 0.14909139275550842,
                "min": -0.29818278551101685,
                "offset": -2,
                "scale": 0.14909139275550842
            },
            {
                "bitwidth": 2,
                "dtype": "int",
                "is_symmetric": "True",
                "max": 0.11997589468955994,
                "min": -0.23995178937911987,
                "offset": -2,
                "scale": 0.11997589468955994
            },
            {
                "bitwidth": 2,
                "dtype": "int",
                "is_symmetric": "True",
                "max": 0.13065408170223236,
                "min": -0.2613081634044647,
                "offset": -2,
                "scale": 0.13065408170223236
            },
            {
                "bitwidth": 2,
                "dtype": "int",
                "is_symmetric": "True",
                "max": 0.14045731723308563,
                "min": -0.28091463446617126,
                "offset": -2,
                "scale": 0.14045731723308563
            },
            {
                "bitwidth": 2,
                "dtype": "int",
                "is_symmetric": "True",
                "max": 0.150538370013237,
                "min": -0.301076740026474,
                "offset": -2,
                "scale": 0.150538370013237
            },
            {
                "bitwidth": 2,
                "dtype": "int",
                "is_symmetric": "True",
                "max": 0.14068953692913055,
                "min": -0.2813790738582611,
                "offset": -2,
                "scale": 0.14068953692913055
            },
            {
                "bitwidth": 2,
                "dtype": "int",
                "is_symmetric": "True",
                "max": 0.12872254848480225,
                "min": -0.2574450969696045,
                "offset": -2,
                "scale": 0.12872254848480225
            },
            {
                "bitwidth": 2,
                "dtype": "int",
                "is_symmetric": "True",
                "max": 0.1404867172241211,
                "min": -0.2809734344482422,
                "offset": -2,
                "scale": 0.1404867172241211
            },
            {
                "bitwidth": 2,
                "dtype": "int",
                "is_symmetric": "True",
                "max": 0.1888445019721985,
                "min": -0.377689003944397,
                "offset": -2,
                "scale": 0.1888445019721985
            },
            {
                "bitwidth": 2,
                "dtype": "int",
                "is_symmetric": "True",
                "max": 0.12845461070537567,
                "min": -0.25690922141075134,
                "offset": -2,
                "scale": 0.12845461070537567
            },
            {
                "bitwidth": 2,
                "dtype": "int",
                "is_symmetric": "True",
                "max": 0.11872963607311249,
                "min": -0.23745927214622498,
                "offset": -2,
                "scale": 0.11872963607311249
            },
            {
                "bitwidth": 2,
                "dtype": "int",
                "is_symmetric": "True",
                "max": 0.12667962908744812,
                "min": -0.25335925817489624,
                "offset": -2,
                "scale": 0.12667962908744812
            },
            {
                "bitwidth": 2,
                "dtype": "int",
                "is_symmetric": "True",
                "max": 0.17342180013656616,
                "min": -0.3468436002731323,
                "offset": -2,
                "scale": 0.17342180013656616
            },
            {
                "bitwidth": 2,
                "dtype": "int",
                "is_symmetric": "True",
                "max": 0.223049134016037,
                "min": -0.446098268032074,
                "offset": -2,
                "scale": 0.223049134016037
            },
            {
                "bitwidth": 2,
                "dtype": "int",
                "is_symmetric": "True",
                "max": 0.1776835024356842,
                "min": -0.3553670048713684,
                "offset": -2,
                "scale": 0.1776835024356842
            },
            {
                "bitwidth": 2,
                "dtype": "int",
                "is_symmetric": "True",
                "max": 0.21949301660060883,
                "min": -0.43898603320121765,
                "offset": -2,
                "scale": 0.21949301660060883
            },
            {
                "bitwidth": 2,
                "dtype": "int",
                "is_symmetric": "True",
                "max": 0.15493854880332947,
                "min": -0.30987709760665894,
                "offset": -2,
                "scale": 0.15493854880332947
            },
            {
                "bitwidth": 2,
                "dtype": "int",
                "is_symmetric": "True",
                "max": 0.11757104098796844,
                "min": -0.2351420819759369,
                "offset": -2,
                "scale": 0.11757104098796844
            },
            {
                "bitwidth": 2,
                "dtype": "int",
                "is_symmetric": "True",
                "max": 0.12850570678710938,
                "min": -0.25701141357421875,
                "offset": -2,
                "scale": 0.12850570678710938
            },
            {
                "bitwidth": 2,
                "dtype": "int",
                "is_symmetric": "True",
                "max": 0.133246049284935,
                "min": -0.26649209856987,
                "offset": -2,
                "scale": 0.133246049284935
            },
            {
                "bitwidth": 2,
                "dtype": "int",
                "is_symmetric": "True",
                "max": 0.13543103635311127,
                "min": -0.27086207270622253,
                "offset": -2,
                "scale": 0.13543103635311127
            },
            {
                "bitwidth": 2,
                "dtype": "int",
                "is_symmetric": "True",
                "max": 0.18693241477012634,
                "min": -0.3738648295402527,
                "offset": -2,
                "scale": 0.18693241477012634
            },
            {
                "bitwidth": 2,
                "dtype": "int",
                "is_symmetric": "True",
                "max": 0.12780353426933289,
                "min": -0.25560706853866577,
                "offset": -2,
                "scale": 0.12780353426933289
            },
            {
                "bitwidth": 2,
                "dtype": "int",
                "is_symmetric": "True",
                "max": 0.12232132256031036,
                "min": -0.24464264512062073,
                "offset": -2,
                "scale": 0.12232132256031036
            },
            {
                "bitwidth": 2,
                "dtype": "int",
                "is_symmetric": "True",
                "max": 0.17631742358207703,
                "min": -0.35263484716415405,
                "offset": -2,
                "scale": 0.17631742358207703
            },
            {
                "bitwidth": 2,
                "dtype": "int",
                "is_symmetric": "True",
                "max": 0.14148592948913574,
                "min": -0.2829718589782715,
                "offset": -2,
                "scale": 0.14148592948913574
            },
            {
                "bitwidth": 2,
                "dtype": "int",
                "is_symmetric": "True",
                "max": 0.12488220632076263,
                "min": -0.24976441264152527,
                "offset": -2,
                "scale": 0.12488220632076263
            },
            {
                "bitwidth": 2,
                "dtype": "int",
                "is_symmetric": "True",
                "max": 0.12563012540340424,
                "min": -0.25126025080680847,
                "offset": -2,
                "scale": 0.12563012540340424
            },
            {
                "bitwidth": 2,
                "dtype": "int",
                "is_symmetric": "True",
                "max": 0.15484055876731873,
                "min": -0.30968111753463745,
                "offset": -2,
                "scale": 0.15484055876731873
            },
            {
                "bitwidth": 2,
                "dtype": "int",
                "is_symmetric": "True",
                "max": 0.13553747534751892,
                "min": -0.27107495069503784,
                "offset": -2,
                "scale": 0.13553747534751892
            },
            {
                "bitwidth": 2,
                "dtype": "int",
                "is_symmetric": "True",
                "max": 0.11080232262611389,
                "min": -0.22160464525222778,
                "offset": -2,
                "scale": 0.11080232262611389
            },
            {
                "bitwidth": 2,
                "dtype": "int",
                "is_symmetric": "True",
                "max": 0.1401541531085968,
                "min": -0.2803083062171936,
                "offset": -2,
                "scale": 0.1401541531085968
            },
            {
                "bitwidth": 2,
                "dtype": "int",
                "is_symmetric": "True",
                "max": 0.14445015788078308,
                "min": -0.28890031576156616,
                "offset": -2,
                "scale": 0.14445015788078308
            },
            {
                "bitwidth": 2,
                "dtype": "int",
                "is_symmetric": "True",
                "max": 0.12513211369514465,
                "min": -0.2502642273902893,
                "offset": -2,
                "scale": 0.12513211369514465
            },
            {
                "bitwidth": 2,
                "dtype": "int",
                "is_symmetric": "True",
                "max": 0.14211001992225647,
                "min": -0.28422003984451294,
                "offset": -2,
                "scale": 0.14211001992225647
            },
            {
                "bitwidth": 2,
                "dtype": "int",
                "is_symmetric": "True",
                "max": 0.19402527809143066,
                "min": -0.38805055618286133,
                "offset": -2,
                "scale": 0.19402527809143066
            },
            {
                "bitwidth": 2,
                "dtype": "int",
                "is_symmetric": "True",
                "max": 0.1190478503704071,
                "min": -0.2380957007408142,
                "offset": -2,
                "scale": 0.1190478503704071
            },
            {
                "bitwidth": 2,
                "dtype": "int",
                "is_symmetric": "True",
                "max": 0.12236011028289795,
                "min": -0.2447202205657959,
                "offset": -2,
                "scale": 0.12236011028289795
            },
            {
                "bitwidth": 2,
                "dtype": "int",
                "is_symmetric": "True",
                "max": 0.13889101147651672,
                "min": -0.27778202295303345,
                "offset": -2,
                "scale": 0.13889101147651672
            },
            {
                "bitwidth": 2,
                "dtype": "int",
                "is_symmetric": "True",
                "max": 0.12506338953971863,
                "min": -0.25012677907943726,
                "offset": -2,
                "scale": 0.12506338953971863
            },
            {
                "bitwidth": 2,
                "dtype": "int",
                "is_symmetric": "True",
                "max": 0.13568520545959473,
                "min": -0.27137041091918945,
                "offset": -2,
                "scale": 0.13568520545959473
            },
            {
                "bitwidth": 2,
                "dtype": "int",
                "is_symmetric": "True",
                "max": 0.14538124203681946,
                "min": -0.2907624840736389,
                "offset": -2,
                "scale": 0.14538124203681946
            },
            {
                "bitwidth": 2,
                "dtype": "int",
                "is_symmetric": "True",
                "max": 0.12121368944644928,
                "min": -0.24242737889289856,
                "offset": -2,
                "scale": 0.12121368944644928
            },
            {
                "bitwidth": 2,
                "dtype": "int",
                "is_symmetric": "True",
                "max": 0.14134202897548676,
                "min": -0.2826840579509735,
                "offset": -2,
                "scale": 0.14134202897548676
            },
            {
                "bitwidth": 2,
                "dtype": "int",
                "is_symmetric": "True",
                "max": 0.13786648213863373,
                "min": -0.27573296427726746,
                "offset": -2,
                "scale": 0.13786648213863373
            },
            {
                "bitwidth": 2,
                "dtype": "int",
                "is_symmetric": "True",
                "max": 0.14101138710975647,
                "min": -0.28202277421951294,
                "offset": -2,
                "scale": 0.14101138710975647
            },
            {
                "bitwidth": 2,
                "dtype": "int",
                "is_symmetric": "True",
                "max": 0.10793891549110413,
                "min": -0.21587783098220825,
                "offset": -2,
                "scale": 0.10793891549110413
            },
            {
                "bitwidth": 2,
                "dtype": "int",
                "is_symmetric": "True",
                "max": 0.1252833902835846,
                "min": -0.2505667805671692,
                "offset": -2,
                "scale": 0.1252833902835846
            },
            {
                "bitwidth": 2,
